{
  "version": "1.0",
  "truncation": null,
  "padding": null,
  "added_tokens": [
    {
      "id": 29995,
      "content": "<s>",
      "single_word": false,
      "lstrip": false,
      "rstrip": false,
      "normalized": false,
      "special": true
    },
    {
      "id": 29996,
      "content": "<pad>",
      "single_word": false,
      "lstrip": false,
      "rstrip": false,
      "normalized": false,
      "special": true
    },
    {
      "id": 29997,
      "content": "</s>",
      "single_word": false,
      "lstrip": false,
      "rstrip": false,
      "normalized": false,
      "special": true
    },
    {
      "id": 29998,
      "content": "<unk>",
      "single_word": false,
      "lstrip": false,
      "rstrip": false,
      "normalized": false,
      "special": true
    },
    {
      "id": 29999,
      "content": "<mask>",
      "single_word": false,
      "lstrip": false,
      "rstrip": false,
      "normalized": false,
      "special": true
    }
  ],
  "normalizer": null,
  "pre_tokenizer": null,
  "post_processor": null,
  "decoder": null,
  "model": {
    "type": "BPE",
    "dropout": null,
    "unk_token": null,
    "continuing_subword_prefix": null,
    "end_of_word_suffix": null,
    "fuse_unk": false,
    "byte_fallback": false,
    "ignore_merges": false,
    "vocab": {
      "\n": 0,
      "\r": 1,
      " ": 2,
      "!": 3,
      "\"": 4,
      "$": 5,
      "%": 6,
      "'": 7,
      "(": 8,
      ")": 9,
      "*": 10,
      ",": 11,
      "-": 12,
      ".": 13,
      "/": 14,
      "0": 15,
      "1": 16,
      "2": 17,
      "3": 18,
      "4": 19,
      "5": 20,
      "6": 21,
      "7": 22,
      "8": 23,
      "9": 24,
      ":": 25,
      ";": 26,
      "=": 27,
      "?": 28,
      "A": 29,
      "B": 30,
      "C": 31,
      "D": 32,
      "E": 33,
      "F": 34,
      "G": 35,
      "H": 36,
      "I": 37,
      "J": 38,
      "K": 39,
      "L": 40,
      "M": 41,
      "N": 42,
      "O": 43,
      "P": 44,
      "Q": 45,
      "R": 46,
      "S": 47,
      "T": 48,
      "U": 49,
      "V": 50,
      "W": 51,
      "X": 52,
      "Y": 53,
      "Z": 54,
      "a": 55,
      "b": 56,
      "c": 57,
      "d": 58,
      "e": 59,
      "f": 60,
      "g": 61,
      "h": 62,
      "i": 63,
      "j": 64,
      "k": 65,
      "l": 66,
      "m": 67,
      "n": 68,
      "o": 69,
      "p": 70,
      "q": 71,
      "r": 72,
      "s": 73,
      "t": 74,
      "u": 75,
      "v": 76,
      "w": 77,
      "x": 78,
      "y": 79,
      "z": 80,
      "À": 81,
      "Á": 82,
      "É": 83,
      "à": 84,
      "á": 85,
      "â": 86,
      "ä": 87,
      "æ": 88,
      "ç": 89,
      "è": 90,
      "é": 91,
      "ê": 92,
      "ë": 93,
      "í": 94,
      "î": 95,
      "ï": 96,
      "ó": 97,
      "ô": 98,
      "ö": 99,
      "ú": 100,
      "ü": 101,
      "ý": 102,
      "œ": 103,
      "—": 104,
      "‘": 105,
      "’": 106,
      "“": 107,
      "”": 108,
      "﻿": 109,
      "e ": 110,
      "th": 111,
      "\r\n": 112,
      "d ": 113,
      "t ": 114,
      "s ": 115,
      "in": 116,
      "er": 117,
      "an": 118,
      ", ": 119,
      "the ": 120,
      "en": 121,
      "on": 122,
      "o ": 123,
      "y ": 124,
      "ou": 125,
      "ed ": 126,
      "ing": 127,
      "and ": 128,
      "or": 129,
      "hi": 130,
      "re": 131,
      "f ": 132,
      "ar": 133,
      "to ": 134,
      "ing ": 135,
      "ha": 136,
      ". ": 137,
      "of ": 138,
      "st": 139,
      "ll": 140,
      "he ": 141,
      "er ": 142,
      "at ": 143,
      "at": 144,
      "a ": 145,
      "om": 146,
      "as ": 147,
      "es": 148,
      "ow": 149,
      "ch": 150,
      "in ": 151,
      ".\r\n": 152,
      "it": 153,
      "se": 154,
      "wi": 155,
      "the": 156,
      "le": 157,
      "on ": 158,
      "al": 159,
      "his ": 160,
      "be": 161,
      "en ": 162,
      "that ": 163,
      "as": 164,
      "was ": 165,
      "no": 166,
      "for": 167,
      "with": 168,
      "ly ": 169,
      "ll ": 170,
      "sa": 171,
      "ri": 172,
      "gh": 173,
      "” ": 174,
      "ol": 175,
      "ac": 176,
      "him": 177,
      "si": 178,
      "ov": 179,
      "di": 180,
      "ti": 181,
      "wh": 182,
      ", and ": 183,
      "ed": 184,
      "li": 185,
      "an ": 186,
      "with ": 187,
      "sh": 188,
      "had ": 189,
      "ro": 190,
      "ir": 191,
      "and": 192,
      "ur": 193,
      "you": 194,
      "is ": 195,
      "un": 196,
      "oo": 197,
      "ev": 198,
      "he": 199,
      "not ": 200,
      "ch ": 201,
      "os": 202,
      "ere ": 203,
      "ad": 204,
      "us": 205,
      "ut ": 206,
      "ent": 207,
      "ce ": 208,
      "’s ": 209,
      "I ": 210,
      "le ": 211,
      "am": 212,
      "k ": 213,
      "oun": 214,
      "ow ": 215,
      "es ": 216,
      "it ": 217,
      "her ": 218,
      "ve ": 219,
      "of the ": 220,
      "om ": 221,
      "con": 222,
      "oul": 223,
      "de": 224,
      "ic": 225,
      "n ": 226,
      "fr": 227,
      "pe": 228,
      "ab": 229,
      "ag": 230,
      "el": 231,
      "”\r\n": 232,
      "for ": 233,
      "rin": 234,
      "em": 235,
      "whi": 236,
      "ent ": 237,
      "of": 238,
      "e\r\n": 239,
      "..": 240,
      "ap": 241,
      "sai": 242,
      "s, ": 243,
      "ex": 244,
      "the\r\n": 245,
      "or ": 246,
      "An": 247,
      ",\r\n": 248,
      "com": 249,
      "ould ": 250,
      "s\r\n": 251,
      "e, ": 252,
      "su": 253,
      "but ": 254,
      "all": 255,
      "one ": 256,
      "ter": 257,
      "The ": 258,
      "out ": 259,
      "him ": 260,
      "res": 261,
      "op": 262,
      "all ": 263,
      ",” ": 264,
      "ut": 265,
      "w ": 266,
      "ne": 267,
      "she ": 268,
      "ed to ": 269,
      "hat ": 270,
      "ati": 271,
      "from ": 272,
      "you ": 273,
      "wa": 274,
      "sel": 275,
      "qu": 276,
      "ough": 277,
      "said ": 278,
      "mi": 279,
      "y, ": 280,
      "up": 281,
      "per": 282,
      "fe": 283,
      "by ": 284,
      "Prin": 285,
      "ther": 286,
      "be ": 287,
      "were ": 288,
      "to the ": 289,
      "ess ": 290,
      "der": 291,
      "im": 292,
      "ier": 293,
      "al ": 294,
      "ak": 295,
      "her": 296,
      "la": 297,
      "to": 298,
      "Pier": 299,
      "ra": 300,
      "ther ": 301,
      "sha": 302,
      "me": 303,
      "me ": 304,
      "in the ": 305,
      "ce": 306,
      "g ": 307,
      "y\r\n": 308,
      "which ": 309,
      "who ": 310,
      "som": 311,
      "and\r\n": 312,
      "have ": 313,
      "them": 314,
      ". “": 315,
      ". H": 316,
      "loo": 317,
      "ver": 318,
      "d\r\n": 319,
      "ul": 320,
      ".”\r\n": 321,
      "ir ": 322,
      "ked ": 323,
      "id": 324,
      "so ": 325,
      "they ": 326,
      "tr": 327,
      "ter ": 328,
      "ar ": 329,
      "what ": 330,
      "our": 331,
      "the c": 332,
      "! ": 333,
      "sp": 334,
      "this ": 335,
      "t\r\n": 336,
      "dre": 337,
      "ted ": 338,
      "fac": 339,
      "thing ": 340,
      "!” ": 341,
      "kn": 342,
      "ain": 343,
      "ren": 344,
      "is": 345,
      "mor": 346,
      "wor": 347,
      "ost": 348,
      "arm": 349,
      "re ": 350,
      "did ": 351,
      "are ": 352,
      "we": 353,
      "Prince ": 354,
      "own ": 355,
      "s and ": 356,
      "est": 357,
      "old ": 358,
      "fi": 359,
      "il": 360,
      "pres": 361,
      "te": 362,
      ". T": 363,
      "been ": 364,
      "man": 365,
      "do": 366,
      "s of ": 367,
      "ing\r\n": 368,
      "pl": 369,
      "atá": 370,
      "ever": 371,
      "though": 372,
      ". The ": 373,
      "their ": 374,
      "ght ": 375,
      "ed\r\n": 376,
      "up ": 377,
      "se ": 378,
      "da": 379,
      "would ": 380,
      "ess": 381,
      "es, ": 382,
      "tur": 383,
      "pp": 384,
      "et ": 385,
      "Natá": 386,
      "Natásha": 387,
      "ang": 388,
      "af": 389,
      "d, ": 390,
      "to\r\n": 391,
      "Pierre ": 392,
      "? ": 393,
      "fic": 394,
      "t, ": 395,
      "ting ": 396,
      "óv": 397,
      "pos": 398,
      "ke ": 399,
      "att": 400,
      "Andre": 401,
      "th ": 402,
      "par": 403,
      "ard ": 404,
      "?” ": 405,
      "cam": 406,
      ". He ": 407,
      "ru": 408,
      "vi": 409,
      "ci": 410,
      "ca": 411,
      "ed the ": 412,
      "ed, ": 413,
      "Rost": 414,
      "lo": 415,
      "ey": 416,
      "of\r\n": 417,
      "man ": 418,
      "only ": 419,
      "self ": 420,
      "king ": 421,
      "ad ": 422,
      "lov": 423,
      "; ": 424,
      "Fren": 425,
      "ust ": 426,
      "at the ": 427,
      "ant ": 428,
      "so": 429,
      "But ": 430,
      "on the ": 431,
      "my ": 432,
      "’t ": 433,
      "And ": 434,
      "could ": 435,
      "rem": 436,
      "beg": 437,
      "ep": 438,
      "when ": 439,
      "fa": 440,
      "pro": 441,
      "he had ": 442,
      "  ": 443,
      "end": 444,
      "fir": 445,
      "Prince Andre": 446,
      "bo": 447,
      ". I": 448,
      "ant": 449,
      "Rostóv": 450,
      "that": 451,
      "ong ": 452,
      "iti": 453,
      "st ": 454,
      "ation": 455,
      "if ": 456,
      "ound ": 457,
      "e and ": 458,
      ", but ": 459,
      "“W": 460,
      "no ": 461,
      "some": 462,
      "ct": 463,
      ". S": 464,
      ". A": 465,
      ",” said ": 466,
      "sk": 467,
      "did not ": 468,
      "ous": 469,
      "tion": 470,
      "ard": 471,
      "e of ": 472,
      "will ": 473,
      "a\r\n": 474,
      "gr": 475,
      "tion ": 476,
      "them ": 477,
      "other": 478,
      "bl": 479,
      "ary ": 480,
      "way": 481,
      "ving ": 482,
      "ght": 483,
      "ity ": 484,
      "ain ": 485,
      "there ": 486,
      "as\r\n": 487,
      "other ": 488,
      "your": 489,
      "now ": 490,
      "sti": 491,
      "ussi": 492,
      "ose ": 493,
      "ood ": 494,
      "tak": 495,
      "about ": 496,
      "et": 497,
      "go": 498,
      "ni": 499,
      "turn": 500,
      "self": 501,
      "ation ": 502,
      "ing the ": 503,
      "ov ": 504,
      "ly": 505,
      "with a ": 506,
      "der ": 507,
      "ser": 508,
      "ma": 509,
      "went ": 510,
      "um": 511,
      "vo": 512,
      "pre": 513,
      "ón": 514,
      "anc": 515,
      "befor": 516,
      "ount": 517,
      "lit": 518,
      "our ": 519,
      "gi": 520,
      "Russi": 521,
      "smi": 522,
      "dd": 523,
      "seem": 524,
      "comm": 525,
      "kh": 526,
      "ing, ": 527,
      "ple": 528,
      "Pierre": 529,
      "came ": 530,
      "more ": 531,
      "ed and ": 532,
      "ful": 533,
      "ener": 534,
      "some ": 535,
      "Mos": 536,
      "pa": 537,
      "sol": 538,
      "gre": 539,
      "ing to ": 540,
      "ole": 541,
      "over": 542,
      "prin": 543,
      "tw": 544,
      "Princ": 545,
      "do ": 546,
      "under": 547,
      "ers ": 548,
      "very ": 549,
      "hand": 550,
      "de ": 551,
      "ally ": 552,
      "cl": 553,
      "Mosc": 554,
      "happ": 555,
      "fin": 556,
      "he\r\n": 557,
      "offic": 558,
      "Em": 559,
      "co": 560,
      ": ": 561,
      "mov": 562,
      "sed ": 563,
      "own": 564,
      "every": 565,
      "fl": 566,
      "ound": 567,
      "we ": 568,
      "how ": 569,
      "ich": 570,
      "s.\r\n": 571,
      "his\r\n": 572,
      "like ": 573,
      "hor": 574,
      ". W": 575,
      "read": 576,
      "Emper": 577,
      "ous ": 578,
      "able ": 579,
      "ite ": 580,
      "he was ": 581,
      "fu": 582,
      "chi": 583,
      "ga": 584,
      "way ": 585,
      "ach": 586,
      "fel": 587,
      "your ": 588,
      "men ": 589,
      "spe": 590,
      "form": 591,
      "mu": 592,
      "Natásha ": 593,
      "por": 594,
      "in a ": 595,
      "pas": 596,
      "ong": 597,
      "has ": 598,
      "thing": 599,
      "arri": 600,
      "est ": 601,
      "cont": 602,
      "underst": 603,
      "Nich": 604,
      "Nichol": 605,
      "himself ": 606,
      "with the ": 607,
      "You": 608,
      "in\r\n": 609,
      "from the ": 610,
      "ed his ": 611,
      "ed by ": 612,
      "tal": 613,
      "ble ": 614,
      "gl": 615,
      "rough": 616,
      "ack ": 617,
      "fer": 618,
      "ever ": 619,
      "French ": 620,
      "lef": 621,
      "... ": 622,
      "time ": 623,
      "tic": 624,
      "looked ": 625,
      "Nap": 626,
      "stor": 627,
      "ty": 628,
      "gener": 629,
      "sc": 630,
      "ole ": 631,
      "began ": 632,
      "on’t ": 633,
      "pr": 634,
      "s, and ": 635,
      "new ": 636,
      "Prince Andrew ": 637,
      "ate ": 638,
      "its ": 639,
      "use ": 640,
      "ently ": 641,
      "min": 642,
      "po": 643,
      "without ": 644,
      "after ": 645,
      "ec": 646,
      "e.\r\n": 647,
      "row": 648,
      "Napole": 649,
      "any": 650,
      "peop": 651,
      "out": 652,
      "!”\r\n": 653,
      "know ": 654,
      "des": 655,
      "sh ": 656,
      "ost ": 657,
      "too": 658,
      "was\r\n": 659,
      "thought ": 660,
      "He ": 661,
      "lif": 662,
      "pri": 663,
      "son": 664,
      "am ": 665,
      "come ": 666,
      "tle ": 667,
      "had been ": 668,
      "felt ": 669,
      "na ": 670,
      "tim": 671,
      "sm": 672,
      "see ": 673,
      "?”\r\n": 674,
      "hen ": 675,
      "and the ": 676,
      "those ": 677,
      "where ": 678,
      "same ": 679,
      "...": 680,
      "soldi": 681,
      "“I ": 682,
      "thes": 683,
      "ely ": 684,
      "wer": 685,
      "feel": 686,
      "ber": 687,
      "here ": 688,
      "thin": 689,
      "ck": 690,
      "before ": 691,
      "still ": 692,
      "men": 693,
      "úz": 694,
      "into ": 695,
      "such ": 696,
      "Kut": 697,
      "ence ": 698,
      "reg": 699,
      "expres": 700,
      "ski": 701,
      "ance ": 702,
      "of his ": 703,
      "dr": 704,
      "ess M": 705,
      "then ": 706,
      "that the ": 707,
      "Kutúz": 708,
      "down ": 709,
      "y.\r\n": 710,
      "first ": 711,
      "jo": 712,
      "str": 713,
      "can": 714,
      "cle": 715,
      "’ ": 716,
      "that\r\n": 717,
      "You ": 718,
      "any ": 719,
      "tri": 720,
      "bur": 721,
      "to be ": 722,
      "gu": 723,
      ". But ": 724,
      "ís": 725,
      "over ": 726,
      "hou": 727,
      ", the ": 728,
      "enc": 729,
      "room": 730,
      "fri": 731,
      "in his ": 732,
      "asked ": 733,
      "than ": 734,
      "ugh": 735,
      "ast ": 736,
      "sur": 737,
      "ion": 738,
      "for the ": 739,
      "mom": 740,
      "mad": 741,
      "en\r\n": 742,
      "p ": 743,
      "know": 744,
      "one": 745,
      "batt": 746,
      "it was ": 747,
      "go ": 748,
      "ount ": 749,
      "sion ": 750,
      "ry ": 751,
      "ble": 752,
      "pla": 753,
      "ill": 754,
      "din": 755,
      "order": 756,
      "ying ": 757,
      "should ": 758,
      "youn": 759,
      "plac": 760,
      "dres": 761,
      "little ": 762,
      "Princess M": 763,
      "left ": 764,
      "ster": 765,
      "fre": 766,
      "du": 767,
      "id ": 768,
      "ans": 769,
      "bet": 770,
      "cc": 771,
      "cri": 772,
      "these ": 773,
      "rep": 774,
      "beca": 775,
      "ful ": 776,
      "ef": 777,
      ". O": 778,
      "again": 779,
      "inter": 780,
      "ed.\r\n": 781,
      "face ": 782,
      "te ": 783,
      "command": 784,
      "“T": 785,
      "s to ": 786,
      "eyes ": 787,
      "whole ": 788,
      "alway": 789,
      "word": 790,
      "llow": 791,
      "ll, ": 792,
      "two ": 793,
      "hin": 794,
      "long ": 795,
      "something ": 796,
      "ing his ": 797,
      "dden": 798,
      "óny": 799,
      "bri": 800,
      "day ": 801,
      "cor": 802,
      "s were ": 803,
      "him, ": 804,
      "sion": 805,
      "even ": 806,
      "ated ": 807,
      "and, ": 808,
      "ack": 809,
      "Rostóv ": 810,
      "possi": 811,
      "fo": 812,
      "most ": 813,
      "pleas": 814,
      "Den": 815,
      "No": 816,
      "rec": 817,
      "just ": 818,
      "French": 819,
      "Denís": 820,
      "av": 821,
      "must ": 822,
      "t’s ": 823,
      "by the ": 824,
      "a, ": 825,
      "saw ": 826,
      "could not ": 827,
      "cap": 828,
      "sing ": 829,
      "again ": 830,
      "mak": 831,
      "room ": 832,
      "made ": 833,
      "sen": 834,
      "princ": 835,
      "ge ": 836,
      "ly\r\n": 837,
      "m ": 838,
      "ved ": 839,
      "with his ": 840,
      "er, ": 841,
      "inc": 842,
      ". I ": 843,
      "now": 844,
      "Sóny": 845,
      "ig": 846,
      "as if ": 847,
      "head ": 848,
      "bro": 849,
      "Bor": 850,
      "always ": 851,
      "mar": 852,
      "ish": 853,
      "I\r\n": 854,
      "ear": 855,
      "evid": 856,
      "with\r\n": 857,
      "dif": 858,
      "being ": 859,
      "of a ": 860,
      "can ": 861,
      "hey ": 862,
      "day": 863,
      ") ": 864,
      "“I": 865,
      "thre": 866,
      "h, ": 867,
      "ob": 868,
      "had\r\n": 869,
      "say ": 870,
      "Prince Andrew": 871,
      "histor": 872,
      "sil": 873,
      "into the ": 874,
      "sudden": 875,
      "ready ": 876,
      "heard ": 877,
      "himself": 878,
      "ros": 879,
      "hear": 880,
      "took ": 881,
      "int": 882,
      ",” he ": 883,
      "because ": 884,
      "au": 885,
      "get ": 886,
      "long": 887,
      "ty ": 888,
      "ind": 889,
      "R ": 890,
      "ge": 891,
      "lat": 892,
      "ness ": 893,
      ". She ": 894,
      "head": 895,
      "cep": 896,
      "let": 897,
      "quest": 898,
      "se, ": 899,
      "TE": 900,
      "s of the ": 901,
      "inu": 902,
      "ed that ": 903,
      "army ": 904,
      "mer": 905,
      "Moscow ": 906,
      "told ": 907,
      "voic": 908,
      "HA": 909,
      "ck ": 910,
      "cei": 911,
      "don’t ": 912,
      "dis": 913,
      "port": 914,
      "’s\r\n": 915,
      "say": 916,
      "through": 917,
      "ust": 918,
      "continu": 919,
      "back ": 920,
      "is\r\n": 921,
      "occ": 922,
      "CHA": 923,
      ". It ": 924,
      "Go": 925,
      "PTE": 926,
      "CHAPTE": 927,
      "CHAPTER ": 928,
      "ure": 929,
      ". And ": 930,
      "es\r\n": 931,
      "Nicholas ": 932,
      "ke": 933,
      "ning ": 934,
      "’ll ": 935,
      "Russian ": 936,
      "led ": 937,
      "looking ": 938,
      "ud": 939,
      "hus": 940,
      "wom": 941,
      "knew ": 942,
      "never ": 943,
      "young ": 944,
      "at\r\n": 945,
      "hel": 946,
      "ly, ": 947,
      "him.\r\n": 948,
      "ition": 949,
      "dra": 950,
      "having ": 951,
      "her\r\n": 952,
      "“A": 953,
      "all the ": 954,
      "people ": 955,
      "n the ": 956,
      "able": 957,
      "look ": 958,
      "full": 959,
      "dist": 960,
      "Moscow": 961,
      "t of ": 962,
      "ses ": 963,
      "under ": 964,
      "ment": 965,
      ", and the ": 966,
      " and ": 967,
      "away ": 968,
      "whom ": 969,
      "but": 970,
      "tre": 971,
      "old": 972,
      "“Y": 973,
      "!” said ": 974,
      "though ": 975,
      "round ": 976,
      "Dó": 977,
      "vic": 978,
      "not\r\n": 979,
      "expe": 980,
      "iz": 981,
      "tro": 982,
      "enter": 983,
      "ood": 984,
      "through ": 985,
      "comp": 986,
      "on his ": 987,
      "spo": 988,
      "Emperor": 989,
      "sten": 990,
      "consi": 991,
      "lokh": 992,
      "Dólokh": 993,
      "Emperor ": 994,
      "an\r\n": 995,
      "hun": 996,
      "mat": 997,
      "“O": 998,
      "while ": 999,
      "cer": 1000,
      "suddenly ": 1001,
      "that he ": 1002,
      "laugh": 1003,
      "d of ": 1004,
      "ne ": 1005,
      "there": 1006,
      "tor": 1007,
      "age ": 1008,
      "new": 1009,
      "Napoleon ": 1010,
      "call": 1011,
      "count": 1012,
      "quite ": 1013,
      "Kutúzov ": 1014,
      "repli": 1015,
      "ush": 1016,
      "ition ": 1017,
      "take ": 1018,
      "tell ": 1019,
      "Pe": 1020,
      "wr": 1021,
      "another ": 1022,
      "turned ": 1023,
      "much ": 1024,
      "seemed to ": 1025,
      "wish": 1026,
      "let ": 1027,
      "draw": 1028,
      "ed him ": 1029,
      "are": 1030,
      "ten ": 1031,
      "sat ": 1032,
      "regim": 1033,
      "recei": 1034,
      "happen": 1035,
      "us ": 1036,
      "reas": 1037,
      "ari": 1038,
      "on\r\n": 1039,
      "to his ": 1040,
      "nothing ": 1041,
      "who had ": 1042,
      "ly and ": 1043,
      "ed with ": 1044,
      "ell, ": 1045,
      "ess, ": 1046,
      "na": 1047,
      "pow": 1048,
      "ed in ": 1049,
      ". B": 1050,
      "ves ": 1051,
      "en, ": 1052,
      "ach ": 1053,
      "bod": 1054,
      "evidently ": 1055,
      "fron": 1056,
      "gni": 1057,
      "less ": 1058,
      "ts ": 1059,
      "as he ": 1060,
      "appe": 1061,
      "br": 1062,
      "ste": 1063,
      "off ": 1064,
      "nec": 1065,
      "ure ": 1066,
      "prov": 1067,
      "ven ": 1068,
      "stru": 1069,
      "lea": 1070,
      "ters": 1071,
      "Princess Mary ": 1072,
      "d.\r\n": 1073,
      "hand ": 1074,
      "who": 1075,
      "last ": 1076,
      "y and ": 1077,
      "behin": 1078,
      "“H": 1079,
      "it is ": 1080,
      "enem": 1081,
      "see": 1082,
      "smile": 1083,
      "general ": 1084,
      "ion ": 1085,
      "esid": 1086,
      "I am ": 1087,
      "give ": 1088,
      "stood ": 1089,
      "gave ": 1090,
      "arr": 1091,
      "for a ": 1092,
      "cour": 1093,
      "tow": 1094,
      "whe": 1095,
      "wait": 1096,
      "ed, and ": 1097,
      "moment ": 1098,
      "Pé": 1099,
      "ine ": 1100,
      "ed her ": 1101,
      "was a ": 1102,
      "ic ": 1103,
      "love ": 1104,
      "think ": 1105,
      "chang": 1106,
      "sub": 1107,
      "high": 1108,
      "of the\r\n": 1109,
      "ash": 1110,
      "cha": 1111,
      "ing.\r\n": 1112,
      "already ": 1113,
      "el ": 1114,
      "ement ": 1115,
      "ist": 1116,
      "every ": 1117,
      "es.\r\n": 1118,
      "stop": 1119,
      "    ": 1120,
      "fam": 1121,
      "hu": 1122,
      "yet ": 1123,
      "sit": 1124,
      "ve\r\n": 1125,
      "qui": 1126,
      "might ": 1127,
      "ry": 1128,
      "sor": 1129,
      "ed a ": 1130,
      "Péty": 1131,
      ":\r\n": 1132,
      "ak ": 1133,
      "end ": 1134,
      "it, ": 1135,
      "peri": 1136,
      "ep ": 1137,
      "sle": 1138,
      "look": 1139,
      "began to ": 1140,
      "ch\r\n": 1141,
      "troop": 1142,
      "right ": 1143,
      "feeling ": 1144,
      "Vas": 1145,
      "chil": 1146,
      "Vasí": 1147,
      "tain": 1148,
      "e, and ": 1149,
      "good ": 1150,
      "mo": 1151,
      "notic": 1152,
      "light": 1153,
      "adv": 1154,
      "ans ": 1155,
      "om\r\n": 1156,
      "as a ": 1157,
      "clo": 1158,
      "another": 1159,
      "officer ": 1160,
      "listen": 1161,
      "...” ": 1162,
      "rap": 1163,
      "Vasíli": 1164,
      "What ": 1165,
      "sci": 1166,
      "life ": 1167,
      "bre": 1168,
      "add": 1169,
      "ct ": 1170,
      "dar": 1171,
      "bu": 1172,
      "on, ": 1173,
      "ask": 1174,
      "Anna ": 1175,
      "would be ": 1176,
      "father": 1177,
      "glanc": 1178,
      "answer": 1179,
      "make ": 1180,
      "ho": 1181,
      "mon": 1182,
      "ank": 1183,
      "ing and ": 1184,
      "off": 1185,
      "exc": 1186,
      "the count": 1187,
      "once ": 1188,
      "Nicholas": 1189,
      "general": 1190,
      "toward ": 1191,
      "...”\r\n": 1192,
      "tru": 1193,
      "igh": 1194,
      "put ": 1195,
      "stra": 1196,
      "Peters": 1197,
      "jec": 1198,
      "Petersbur": 1199,
      "tain ": 1200,
      "s the ": 1201,
      "s that ": 1202,
      "vers": 1203,
      "remem": 1204,
      "ice ": 1205,
      "hal": 1206,
      "se\r\n": 1207,
      "seen ": 1208,
      "es and ": 1209,
      "ran ": 1210,
      "s,\r\n": 1211,
      "war": 1212,
      "t to ": 1213,
      "mis": 1214,
      "ber ": 1215,
      "down": 1216,
      "ef ": 1217,
      "ent, ": 1218,
      "too ": 1219,
      "“Yes, ": 1220,
      "y, and ": 1221,
      "repe": 1222,
      "shou": 1223,
      "!” he ": 1224,
      "rel": 1225,
      "ing a ": 1226,
      "follow": 1227,
      "differ": 1228,
      "foo": 1229,
      "hon": 1230,
      "ner ": 1231,
      "ve": 1232,
      "also ": 1233,
      "even": 1234,
      "remain": 1235,
      "everything ": 1236,
      "behind ": 1237,
      "áv": 1238,
      "Fr": 1239,
      "run": 1240,
      "ed at ": 1241,
      "I have ": 1242,
      "lay ": 1243,
      "may ": 1244,
      "officer": 1245,
      "betwe": 1246,
      "she had ": 1247,
      "Borí": 1248,
      "sin": 1249,
      "inv": 1250,
      "ank ": 1251,
      "who was ": 1252,
      "crow": 1253,
      "wound": 1254,
      "carri": 1255,
      "wat": 1256,
      "ick": 1257,
      "olk": 1258,
      "shoul": 1259,
      "shall ": 1260,
      "strang": 1261,
      "battle ": 1262,
      "Denísov": 1263,
      "taken ": 1264,
      "hy ": 1265,
      "ide": 1266,
      "for\r\n": 1267,
      "here": 1268,
      "fort": 1269,
      "ove ": 1270,
      "friend": 1271,
      "question": 1272,
      "tiv": 1273,
      "il ": 1274,
      "times ": 1275,
      "* ": 1276,
      "ment ": 1277,
      ", “": 1278,
      "ll\r\n": 1279,
      "dear ": 1280,
      "soldier": 1281,
      "were\r\n": 1282,
      "my": 1283,
      "nat": 1284,
      "ten": 1285,
      "es of ": 1286,
      "emp": 1287,
      "Anat": 1288,
      "speak": 1289,
      "people": 1290,
      "It ": 1291,
      "s in ": 1292,
      "the b": 1293,
      "all\r\n": 1294,
      "found ": 1295,
      "thous": 1296,
      "one\r\n": 1297,
      "expression ": 1298,
      "“No": 1299,
      "“What ": 1300,
      "house ": 1301,
      "commander ": 1302,
      "ise": 1303,
      "sent ": 1304,
      ", he ": 1305,
      "lar": 1306,
      "the s": 1307,
      "it\r\n": 1308,
      "“Well, ": 1309,
      "between ": 1310,
      "car": 1311,
      "cal": 1312,
      "fiel": 1313,
      ". They ": 1314,
      "ward": 1315,
      "stand": 1316,
      "mean": 1317,
      "?” said ": 1318,
      "stopp": 1319,
      "besid": 1320,
      "lin": 1321,
      "adj": 1322,
      "“You ": 1323,
      "rode ": 1324,
      "Kutúzov": 1325,
      "CHAPTER X": 1326,
      "consider": 1327,
      "Be": 1328,
      "ast": 1329,
      "brough": 1330,
      "order ": 1331,
      "sim": 1332,
      "hur": 1333,
      "val": 1334,
      "stre": 1335,
      "es, and ": 1336,
      "up to ": 1337,
      "poin": 1338,
      "why ": 1339,
      "?” he ": 1340,
      "great ": 1341,
      "against ": 1342,
      "cted ": 1343,
      "done ": 1344,
      "gir": 1345,
      "ner": 1346,
      "arly ": 1347,
      "necess": 1348,
      "acc": 1349,
      "ent\r\n": 1350,
      "door": 1351,
      "seemed ": 1352,
      "understand ": 1353,
      "l ": 1354,
      "pu": 1355,
      "wha": 1356,
      "step": 1357,
      "wif": 1358,
      "side ": 1359,
      "ed to the ": 1360,
      "soon ": 1361,
      "sing": 1362,
      "want ": 1363,
      "er and ": 1364,
      "both ": 1365,
      "possible ": 1366,
      "Denísov ": 1367,
      "ling ": 1368,
      "disp": 1369,
      "supp": 1370,
      "themsel": 1371,
      "appear": 1372,
      "olkón": 1373,
      "Count ": 1374,
      "dev": 1375,
      "gg": 1376,
      "gall": 1377,
      "thir": 1378,
      "as the ": 1379,
      "cond": 1380,
      "dea": 1381,
      "him and ": 1382,
      "got ": 1383,
      "n’t ": 1384,
      "ome ": 1385,
      "st\r\n": 1386,
      "a b": 1387,
      ". A ": 1388,
      "whether ": 1389,
      ".” ": 1390,
      "She ": 1391,
      "Prince Vasíli": 1392,
      "kis": 1393,
      "ps ": 1394,
      "tra": 1395,
      "direc": 1396,
      "she was ": 1397,
      "proach": 1398,
      "three ": 1399,
      "ating ": 1400,
      "ch, ": 1401,
      "dic": 1402,
      "thought": 1403,
      "affa": 1404,
      "ously ": 1405,
      "ski ": 1406,
      "adjut": 1407,
      "col": 1408,
      "sar": 1409,
      "ual ": 1410,
      "áy": 1411,
      "apar": 1412,
      ". In ": 1413,
      "gent": 1414,
      "ward ": 1415,
      "consci": 1416,
      "position ": 1417,
      "voice ": 1418,
      "Pierre, ": 1419,
      "coun": 1420,
      "be\r\n": 1421,
      "was the ": 1422,
      "from\r\n": 1423,
      "peas": 1424,
      "suf": 1425,
      "try ": 1426,
      "smile ": 1427,
      "fter ": 1428,
      "along ": 1429,
      "sul": 1430,
      "herself ": 1431,
      "away": 1432,
      "ph": 1433,
      "s. ": 1434,
      "lex": 1435,
      "liev": 1436,
      "not to ": 1437,
      "many ": 1438,
      ", and\r\n": 1439,
      "reco": 1440,
      "prince ": 1441,
      "place ": 1442,
      "Princess Mar": 1443,
      "Mad": 1444,
      "pur": 1445,
      "ance": 1446,
      "reach": 1447,
      "import": 1448,
      "vill": 1449,
      "tt": 1450,
      "show": 1451,
      "convers": 1452,
      "said, ": 1453,
      "person": 1454,
      "part ": 1455,
      "but\r\n": 1456,
      "sitting ": 1457,
      "ding ": 1458,
      "good": 1459,
      "ither ": 1460,
      "mí": 1461,
      "ness": 1462,
      "“But ": 1463,
      "sever": 1464,
      "uni": 1465,
      "utter": 1466,
      "remar": 1467,
      "great": 1468,
      "Bal": 1469,
      "Bolkón": 1470,
      "back": 1471,
      "e to ": 1472,
      "star": 1473,
      "al\r\n": 1474,
      "?” asked ": 1475,
      "serv": 1476,
      "anything ": 1477,
      "sta": 1478,
      "light ": 1479,
      "dec": 1480,
      ",” she ": 1481,
      "well ": 1482,
      "talk ": 1483,
      "Napoleon": 1484,
      "fully ": 1485,
      "Páv": 1486,
      "she\r\n": 1487,
      "ext ": 1488,
      "worl": 1489,
      "able to ": 1490,
      "looked at ": 1491,
      "house": 1492,
      "does ": 1493,
      "ations ": 1494,
      "Sónya ": 1495,
      "ouri": 1496,
      "conf": 1497,
      "one of ": 1498,
      "terri": 1499,
      "try": 1500,
      "Alex": 1501,
      "When ": 1502,
      "cros": 1503,
      "s’ ": 1504,
      "want": 1505,
      "or\r\n": 1506,
      "leg": 1507,
      "emo": 1508,
      "have been ": 1509,
      "drawing ": 1510,
      "ess\r\n": 1511,
      "ity": 1512,
      "quar": 1513,
      "tear": 1514,
      "atten": 1515,
      "going ": 1516,
      "t the ": 1517,
      "out\r\n": 1518,
      "him\r\n": 1519,
      "they were ": 1520,
      "ility ": 1521,
      "vie": 1522,
      "soci": 1523,
      "“D": 1524,
      "hat’s ": 1525,
      "till ": 1526,
      "time": 1527,
      "among ": 1528,
      "father ": 1529,
      "“And ": 1530,
      "anim": 1531,
      "life": 1532,
      "rais": 1533,
      ". “W": 1534,
      "soldiers ": 1535,
      "gra": 1536,
      "lad": 1537,
      "nor ": 1538,
      "one, ": 1539,
      "in her ": 1540,
      "agr": 1541,
      "doct": 1542,
      "“M": 1543,
      "ement": 1544,
      "open": 1545,
      "battle": 1546,
      "occup": 1547,
      "son ": 1548,
      "ir\r\n": 1549,
      "near ": 1550,
      "quick": 1551,
      "imag": 1552,
      "gallop": 1553,
      "is, ": 1554,
      "year": 1555,
      "him to ": 1556,
      ". When ": 1557,
      "tu": 1558,
      ", I ": 1559,
      "believ": 1560,
      "ask ": 1561,
      "was not ": 1562,
      "said": 1563,
      "cell": 1564,
      "by\r\n": 1565,
      "dur": 1566,
      "ref": 1567,
      "atter": 1568,
      "it’s ": 1569,
      "action": 1570,
      "had not ": 1571,
      "ould\r\n": 1572,
      "door ": 1573,
      "gaz": 1574,
      "understood ": 1575,
      "princess ": 1576,
      "Dólokhov ": 1577,
      "me, ": 1578,
      "ta": 1579,
      "to her ": 1580,
      "sum": 1581,
      "man, ": 1582,
      "daugh": 1583,
      "chief": 1584,
      "Count": 1585,
      "sof": 1586,
      "sid": 1587,
      "present": 1588,
      "ed by the ": 1589,
      "prison": 1590,
      "brought ": 1591,
      "low": 1592,
      "char": 1593,
      "in which ": 1594,
      "shout": 1595,
      "arm ": 1596,
      "gn": 1597,
      "él": 1598,
      "in the\r\n": 1599,
      "sed": 1600,
      "ossa": 1601,
      "prom": 1602,
      "ign": 1603,
      "A ": 1604,
      "Cossa": 1605,
      "eas": 1606,
      "ight ": 1607,
      "nam": 1608,
      "iness ": 1609,
      "ght, ": 1610,
      "fellow": 1611,
      "wal": 1612,
      "ing her ": 1613,
      "fire": 1614,
      "husb": 1615,
      "body ": 1616,
      "boo": 1617,
      "dri": 1618,
      "s—": 1619,
      "e the ": 1620,
      "che": 1621,
      "élè": 1622,
      "Ger": 1623,
      "x ": 1624,
      "“S": 1625,
      "eng": 1626,
      "of her ": 1627,
      "dep": 1628,
      "known ": 1629,
      "well": 1630,
      "remember": 1631,
      "soul": 1632,
      "t and ": 1633,
      "the same ": 1634,
      "ence": 1635,
      "read ": 1636,
      "wish ": 1637,
      ". His ": 1638,
      "bit": 1639,
      "vel": 1640,
      "addres": 1641,
      "contr": 1642,
      "Natásha, ": 1643,
      "speak ": 1644,
      "cr": 1645,
      "gun": 1646,
      "vis": 1647,
      ". E": 1648,
      "atis": 1649,
      "understand": 1650,
      "leave ": 1651,
      "kin": 1652,
      "wind": 1653,
      "lic": 1654,
      "with her ": 1655,
      "letter ": 1656,
      "awa": 1657,
      "bor": 1658,
      "shi": 1659,
      "law": 1660,
      "tell": 1661,
      "Dólokhov": 1662,
      "Pétya ": 1663,
      "aw": 1664,
      "sper": 1665,
      "stat": 1666,
      "excell": 1667,
      "given ": 1668,
      "horse": 1669,
      "can’t ": 1670,
      "moment": 1671,
      "plain": 1672,
      "shouted ": 1673,
      "From ": 1674,
      "cre": 1675,
      "pol": 1676,
      "rup": 1677,
      "satis": 1678,
      "war ": 1679,
      ", a ": 1680,
      "ed on ": 1681,
      "he would ": 1682,
      "road": 1683,
      "e, but ": 1684,
      "no one ": 1685,
      "ly.\r\n": 1686,
      "words ": 1687,
      "writ": 1688,
      "fami": 1689,
      "Pávlov": 1690,
      "agrati": 1691,
      "pac": 1692,
      "y’s ": 1693,
      "d and ": 1694,
      "to see ": 1695,
      "event": 1696,
      "....": 1697,
      "medi": 1698,
      "ghten": 1699,
      "mother": 1700,
      "return": 1701,
      "him, and ": 1702,
      "ably ": 1703,
      "white ": 1704,
      "few ": 1705,
      "? W": 1706,
      "“Oh, ": 1707,
      "each ": 1708,
      "án": 1709,
      "Pierre’s ": 1710,
      "talk": 1711,
      "joy": 1712,
      "ction": 1713,
      "dou": 1714,
      "kill": 1715,
      "nly ": 1716,
      "he is ": 1717,
      "it.\r\n": 1718,
      "fra": 1719,
      "agg": 1720,
      "toge": 1721,
      "turn ": 1722,
      "like a ": 1723,
      "cannot ": 1724,
      "surpri": 1725,
      "Hélè": 1726,
      "Un": 1727,
      "inst": 1728,
      "is the ": 1729,
      "dest": 1730,
      "horse ": 1731,
      "brid": 1732,
      "histori": 1733,
      "spoke ": 1734,
      "18": 1735,
      "cu": 1736,
      "kep": 1737,
      "red ": 1738,
      "ít": 1739,
      "“The ": 1740,
      "the old ": 1741,
      "ately ": 1742,
      "; but ": 1743,
      "gniz": 1744,
      "II\r\n": 1745,
      "ith ": 1746,
      "ár": 1747,
      "have\r\n": 1748,
      ". N": 1749,
      "right": 1750,
      "she": 1751,
      "which\r\n": 1752,
      "Mi": 1753,
      "mem": 1754,
      "én": 1755,
      "ín": 1756,
      "this": 1757,
      "cially ": 1758,
      "everyone ": 1759,
      "aim": 1760,
      "her, ": 1761,
      "her.\r\n": 1762,
      "ficul": 1763,
      "taking ": 1764,
      "do you ": 1765,
      "movement ": 1766,
      "smo": 1767,
      "shoulder": 1768,
      "recogniz": 1769,
      "Al": 1770,
      "forc": 1771,
      "out of the ": 1772,
      "talking ": 1773,
      "possible": 1774,
      "difficul": 1775,
      "visit": 1776,
      "Bagrati": 1777,
      "I’": 1778,
      "far ": 1779,
      "gover": 1780,
      "marri": 1781,
      "num": 1782,
      "y of ": 1783,
      "stren": 1784,
      "les ": 1785,
      "became ": 1786,
      "been\r\n": 1787,
      "you, ": 1788,
      ". This ": 1789,
      "called ": 1790,
      "since ": 1791,
      "affair": 1792,
      "afra": 1793,
      "t that ": 1794,
      ". M": 1795,
      "llow ": 1796,
      ". The\r\n": 1797,
      "part": 1798,
      "passed ": 1799,
      "ious ": 1800,
      "round": 1801,
      "th, ": 1802,
      ", who ": 1803,
      "really ": 1804,
      "not": 1805,
      "experi": 1806,
      ". “I ": 1807,
      "work": 1808,
      "up and ": 1809,
      "find ": 1810,
      "get": 1811,
      "ág": 1812,
      "áty": 1813,
      "at a ": 1814,
      "set ": 1815,
      "on a ": 1816,
      "whisper": 1817,
      ". Th": 1818,
      "there was ": 1819,
      "small ": 1820,
      "isell": 1821,
      "Mademo": 1822,
      "decid": 1823,
      "Mademoisell": 1824,
      "disc": 1825,
      "matter": 1826,
      "received ": 1827,
      "suffer": 1828,
      "....”\r\n": 1829,
      "streng": 1830,
      "ish ": 1831,
      "pon": 1832,
      ". Pierre ": 1833,
      "their\r\n": 1834,
      "wher": 1835,
      "approach": 1836,
      "expect": 1837,
      "foot": 1838,
      "bow": 1839,
      "use": 1840,
      "and a ": 1841,
      "alone ": 1842,
      "almost ": 1843,
      "side": 1844,
      "ur ": 1845,
      "one of the ": 1846,
      "quir": 1847,
      "they had ": 1848,
      "full ": 1849,
      "ticul": 1850,
      "room.\r\n": 1851,
      "God": 1852,
      "who\r\n": 1853,
      "cir": 1854,
      "win": 1855,
      "edly ": 1856,
      "what was ": 1857,
      "spir": 1858,
      "Prince\r\n": 1859,
      "longer ": 1860,
      "through the ": 1861,
      "Alexand": 1862,
      "For ": 1863,
      "They ": 1864,
      "kind": 1865,
      "páty": 1866,
      "to the\r\n": 1867,
      "to him ": 1868,
      "staf": 1869,
      "espe": 1870,
      "ched ": 1871,
      "activ": 1872,
      "sist": 1873,
      "rose ": 1874,
      "respe": 1875,
      "rush": 1876,
      "wished to ": 1877,
      "Borís ": 1878,
      "natur": 1879,
      "beside ": 1880,
      "bus": 1881,
      "how": 1882,
      "hold": 1883,
      "ing, and ": 1884,
      "signi": 1885,
      "agre": 1886,
      ". He was ": 1887,
      "when he ": 1888,
      "will be ": 1889,
      "duc": 1890,
      "regiment": 1891,
      "áylov": 1892,
      "sy": 1893,
      "ven": 1894,
      "resul": 1895,
      "seiz": 1896,
      "shor": 1897,
      "immedi": 1898,
      ",” said the ": 1899,
      "night ": 1900,
      "chief ": 1901,
      "tried to ": 1902,
      "Sónya": 1903,
      "ception ": 1904,
      "kept ": 1905,
      "ball": 1906,
      "ken ": 1907,
      "los": 1908,
      "non": 1909,
      "tou": 1910,
      "ëv": 1911,
      "real": 1912,
      "s, but ": 1913,
      "others ": 1914,
      "pret": 1915,
      "kháylov": 1916,
      "Mikháylov": 1917,
      "heav": 1918,
      "dear": 1919,
      "mil": 1920,
      "herself": 1921,
      "particul": 1922,
      "twent": 1923,
      "clos": 1924,
      "such a ": 1925,
      "interest": 1926,
      ". It was ": 1927,
      "Anna Pávlov": 1928,
      "gentle": 1929,
      "several ": 1930,
      "“C": 1931,
      "to me": 1932,
      "y, but ": 1933,
      "th of ": 1934,
      "prepar": 1935,
      "hussar": 1936,
      "arrang": 1937,
      "large ": 1938,
      "uniform": 1939,
      "hop": 1940,
      "was": 1941,
      "er\r\n": 1942,
      "ed in the ": 1943,
      "road ": 1944,
      "adm": 1945,
      "peac": 1946,
      "question ": 1947,
      "compan": 1948,
      "thousand ": 1949,
      "signific": 1950,
      "Bouri": 1951,
      "Dmí": 1952,
      "I’ll ": 1953,
      "ek": 1954,
      "rest": 1955,
      "action ": 1956,
      "said\r\n": 1957,
      "position": 1958,
      "ign ": 1959,
      "regiment ": 1960,
      "commander in ": 1961,
      "especially ": 1962,
      "Bourien": 1963,
      "retre": 1964,
      "ing that ": 1965,
      "ate": 1966,
      "that’s ": 1967,
      "held ": 1968,
      "replied ": 1969,
      "Petersburg ": 1970,
      "In ": 1971,
      "Th": 1972,
      "ye": 1973,
      "the French ": 1974,
      "onapar": 1975,
      "and his ": 1976,
      "ing of ": 1977,
      "stud": 1978,
      "le\r\n": 1979,
      "ase ": 1980,
      "man’s ": 1981,
      "so\r\n": 1982,
      "moved ": 1983,
      "things ": 1984,
      "child": 1985,
      "societ": 1986,
      "Dmítri": 1987,
      "far": 1988,
      "you\r\n": 1989,
      "app": 1990,
      "opch": 1991,
      "which he ": 1992,
      "self-": 1993,
      "think": 1994,
      "enemy ": 1995,
      "themselves ": 1996,
      "pal": 1997,
      "table": 1998,
      ". D": 1999,
      "word ": 2000,
      "Rostopch": 2001,
      "ants ": 2002,
      "excellenc": 2003,
      "doub": 2004,
      "fall": 2005,
      "lou": 2006,
      "sk ": 2007,
      "úsh": 2008,
      "thr": 2009,
      "plan": 2010,
      "young": 2011,
      "letter": 2012,
      "standing ": 2013,
      "Ar": 2014,
      "Kar": 2015,
      "cur": 2016,
      "gone ": 2017,
      "jest": 2018,
      "pi": 2019,
      ", or ": 2020,
      "ingly ": 2021,
      "they\r\n": 2022,
      "led": 2023,
      "lik": 2024,
      "sho": 2025,
      "unt": 2026,
      "coming ": 2027,
      ". All ": 2028,
      "about the ": 2029,
      "over the ": 2030,
      "brother": 2031,
      "After ": 2032,
      "ined ": 2033,
      "ching ": 2034,
      "sigh": 2035,
      "disa": 2036,
      "mid": 2037,
      "ation of ": 2038,
      "cover": 2039,
      "yon": 2040,
      "to a ": 2041,
      "in fron": 2042,
      "ity, ": 2043,
      "is a ": 2044,
      "ough ": 2045,
      "Pierre.\r\n": 2046,
      "ustri": 2047,
      "certain ": 2048,
      "ject ": 2049,
      "govern": 2050,
      "Au": 2051,
      "Ber": 2052,
      "e,\r\n": 2053,
      "if": 2054,
      "ill ": 2055,
      "pra": 2056,
      "above ": 2057,
      "often ": 2058,
      "finish": 2059,
      "frighten": 2060,
      "better ": 2061,
      "excit": 2062,
      "Anatole ": 2063,
      "un ": 2064,
      "care": 2065,
      "firm": 2066,
      "happy ": 2067,
      "minut": 2068,
      "cried ": 2069,
      "repeat": 2070,
      "different ": 2071,
      "Alpáty": 2072,
      "next ": 2073,
      "ver ": 2074,
      "won’t ": 2075,
      "enti": 2076,
      "to do ": 2077,
      "wife": 2078,
      "tive ": 2079,
      "ed,\r\n": 2080,
      "he, ": 2081,
      "dem": 2082,
      "aband": 2083,
      "from his ": 2084,
      "help ": 2085,
      "half ": 2086,
      "honor": 2087,
      "Prince Vasíli ": 2088,
      "hom": 2089,
      "len": 2090,
      "less": 2091,
      "vid": 2092,
      "and he ": 2093,
      "that she ": 2094,
      "used ": 2095,
      "cau": 2096,
      "wounded ": 2097,
      "necessary ": 2098,
      "Mademoiselle ": 2099,
      "Austri": 2100,
      "dang": 2101,
      "ect": 2102,
      "in, ": 2103,
      "defin": 2104,
      "uten": 2105,
      "need": 2106,
      "camp": 2107,
      "merely ": 2108,
      "troops ": 2109,
      "rapid": 2110,
      "simp": 2111,
      "Cossack": 2112,
      ",”\r\n": 2113,
      "Má": 2114,
      "bb": 2115,
      "squ": 2116,
      "ue ": 2117,
      "around ": 2118,
      ". You ": 2119,
      "mist": 2120,
      "more than ": 2121,
      "occur": 2122,
      "Petersburg": 2123,
      "Bolkónski": 2124,
      "quarter": 2125,
      "fan": 2126,
      "og": 2127,
      "éev": 2128,
      "’re ": 2129,
      "ed for ": 2130,
      "acros": 2131,
      "hear ": 2132,
      "near": 2133,
      "met ": 2134,
      "are you ": 2135,
      "khov": 2136,
      "interrup": 2137,
      "occupi": 2138,
      "ff": 2139,
      "in that ": 2140,
      "sic": 2141,
      "resol": 2142,
      "opin": 2143,
      "all that ": 2144,
      "night": 2145,
      "reason": 2146,
      "?\r\n": 2147,
      "Mar": 2148,
      "aving ": 2149,
      "forward ": 2150,
      "begin": 2151,
      "God ": 2152,
      "ashëv": 2153,
      "girl": 2154,
      "conversation ": 2155,
      "afraid ": 2156,
      "pit": 2157,
      "sent": 2158,
      "sound": 2159,
      "tom": 2160,
      "thing, ": 2161,
      "this\r\n": 2162,
      "s with ": 2163,
      "the whole ": 2164,
      "comple": 2165,
      "one another": 2166,
      "milit": 2167,
      "very": 2168,
      "morn": 2169,
      "eyes": 2170,
      "no longer ": 2171,
      "feel ": 2172,
      "lu": 2173,
      "vari": 2174,
      "y,\r\n": 2175,
      "then, ": 2176,
      "ical ": 2177,
      "you are ": 2178,
      "! T": 2179,
      "my dear ": 2180,
      "grew ": 2181,
      "officers ": 2182,
      "time, ": 2183,
      "soldier ": 2184,
      "Prince Andrew, ": 2185,
      "terrible ": 2186,
      "experienc": 2187,
      "pap": 2188,
      "and that ": 2189,
      "saying ": 2190,
      "is not ": 2191,
      "eyes, ": 2192,
      "freed": 2193,
      "trying to ": 2194,
      "“L": 2195,
      "the Emperor ": 2196,
      "olén": 2197,
      "ook ": 2198,
      "the count ": 2199,
      "drew ": 2200,
      "would not ": 2201,
      "Rostóv, ": 2202,
      "ity of ": 2203,
      "woman": 2204,
      "hundr": 2205,
      "destro": 2206,
      "dro": 2207,
      "odin": 2208,
      "t of the ": 2209,
      "itu": 2210,
      "itself ": 2211,
      "secon": 2212,
      "! I ": 2213,
      "black ": 2214,
      "smil": 2215,
      "room, ": 2216,
      "Borodin": 2217,
      "remark": 2218,
      "Borodinó": 2219,
      "His ": 2220,
      "If ": 2221,
      "count ": 2222,
      "hard": 2223,
      "t.\r\n": 2224,
      "stri": 2225,
      "at his ": 2226,
      "sed\r\n": 2227,
      "age": 2228,
      "lad ": 2229,
      ". There ": 2230,
      ". As ": 2231,
      "do not ": 2232,
      "coll": 2233,
      "those who ": 2234,
      "ence of ": 2235,
      "Anna Mikháylov": 2236,
      "“No, ": 2237,
      "Gu": 2238,
      "fing": 2239,
      "ses": 2240,
      "s. The ": 2241,
      "red": 2242,
      "will": 2243,
      "impossible ": 2244,
      "work ": 2245,
      "fix": 2246,
      "fill": 2247,
      ". Then ": 2248,
      "coat": 2249,
      "former ": 2250,
      "mind ": 2251,
      "victor": 2252,
      "power": 2253,
      "waiting ": 2254,
      "important ": 2255,
      "How ": 2256,
      "Ma": 2257,
      "bility ": 2258,
      "fur": 2259,
      "table ": 2260,
      "y-": 2261,
      "thing\r\n": 2262,
      "ers, ": 2263,
      "ali": 2264,
      "lim": 2265,
      "conv": 2266,
      "out of ": 2267,
      "laim": 2268,
      ". He\r\n": 2269,
      "after": 2270,
      "Russian": 2271,
      "wife ": 2272,
      "Balashëv": 2273,
      "Dmítriev": 2274,
      "!\r\n": 2275,
      "Sm": 2276,
      "ction ": 2277,
      "either ": 2278,
      "gri": 2279,
      "pain": 2280,
      "ed it ": 2281,
      "ed up ": 2282,
      "hair": 2283,
      "at that ": 2284,
      "a man ": 2285,
      "ounc": 2286,
      "frown": 2287,
      "ely": 2288,
      "face, ": 2289,
      "morning ": 2290,
      "ation, ": 2291,
      "clear": 2292,
      "pleasant ": 2293,
      "princess": 2294,
      "now, ": 2295,
      "power ": 2296,
      "daughter": 2297,
      "h ": 2298,
      "har": 2299,
      "pic": 2300,
      "inquir": 2301,
      "hat": 2302,
      "sible ": 2303,
      ", and that ": 2304,
      "irr": 2305,
      "them.\r\n": 2306,
      ". If ": 2307,
      "seri": 2308,
      ". What ": 2309,
      "glas": 2310,
      "scre": 2311,
      "—and ": 2312,
      "o you ": 2313,
      "fore ": 2314,
      "accor": 2315,
      "evit": 2316,
      "imp": 2317,
      "which was ": 2318,
      "would have ": 2319,
      "Natásha’s ": 2320,
      "countess ": 2321,
      "answered ": 2322,
      "Mademoiselle Bourien": 2323,
      "Smolén": 2324,
      "All ": 2325,
      "avo": 2326,
      "—the ": 2327,
      "repl": 2328,
      "le, ": 2329,
      "fore": 2330,
      "es of the ": 2331,
      "for his ": 2332,
      ". “T": 2333,
      "could be ": 2334,
      "giving ": 2335,
      "horses ": 2336,
      "men, ": 2337,
      "rya ": 2338,
      "na, ": 2339,
      "ón ": 2340,
      "as she ": 2341,
      "deli": 2342,
      "fear": 2343,
      "fell ": 2344,
      "     ": 2345,
      "advanc": 2346,
      "evening ": 2347,
      "Pro": 2348,
      "az": 2349,
      "danc": 2350,
      "pat": 2351,
      "“G": 2352,
      "inevit": 2353,
      "and was ": 2354,
      "arti": 2355,
      "at once ": 2356,
      "on the\r\n": 2357,
      "become ": 2358,
      "beyon": 2359,
      "acqu": 2360,
      ",” thought ": 2361,
      "ought ": 2362,
      "up to the ": 2363,
      "there were ": 2364,
      "mind": 2365,
      "remained ": 2366,
      "depend": 2367,
      "Pr": 2368,
      "don": 2369,
      "ton": 2370,
      "zú": 2371,
      "haps ": 2372,
      "of that ": 2373,
      "exam": 2374,
      "the chi": 2375,
      "pressed ": 2376,
      "; and ": 2377,
      "anyone ": 2378,
      "what\r\n": 2379,
      "along the ": 2380,
      "s.”\r\n": 2381,
      "trem": 2382,
      "won": 2383,
      "ann": 2384,
      "ant, ": 2385,
      ". L": 2386,
      "he did not ": 2387,
      "at her ": 2388,
      "lear": 2389,
      "that I ": 2390,
      "force ": 2391,
      "olunt": 2392,
      "lip": 2393,
      "all, ": 2394,
      "fif": 2395,
      "point": 2396,
      "must be ": 2397,
      "Bezú": 2398,
      "hurri": 2399,
      "hundred ": 2400,
      "ka ": 2401,
      "lost ": 2402,
      "mou": 2403,
      "mone": 2404,
      "would\r\n": 2405,
      "ed from ": 2406,
      "owing ": 2407,
      "nov": 2408,
      "did": 2409,
      "used to ": 2410,
      "!” she ": 2411,
      "grou": 2412,
      "prince": 2413,
      "play": 2414,
      "answ": 2415,
      "acquain": 2416,
      "bad": 2417,
      "“N": 2418,
      "iness": 2419,
      ", and he ": 2420,
      "show ": 2421,
      "ame ": 2422,
      "suit": 2423,
      "expression": 2424,
      "woman ": 2425,
      "under the ": 2426,
      "certain": 2427,
      "human ": 2428,
      "adjutant ": 2429,
      "view ": 2430,
      "circ": 2431,
      "tomor": 2432,
      "Guard": 2433,
      "beyond ": 2434,
      "wro": 2435,
      "with an ": 2436,
      "agit": 2437,
      "them, ": 2438,
      "army": 2439,
      "Andrew": 2440,
      "thinking ": 2441,
      "regard": 2442,
      "matter ": 2443,
      "third ": 2444,
      "condition": 2445,
      "death": 2446,
      "doctor": 2447,
      "abandon": 2448,
      "Bonapar": 2449,
      "aut": 2450,
      "rank": 2451,
      "ts": 2452,
      "then": 2453,
      "s of\r\n": 2454,
      "inform": 2455,
      "lli": 2456,
      "cho": 2457,
      "exist": 2458,
      "open ": 2459,
      "said to ": 2460,
      "army, ": 2461,
      "did not\r\n": 2462,
      "campa": 2463,
      ". At ": 2464,
      "master": 2465,
      "life, ": 2466,
      "fortun": 2467,
      "villag": 2468,
      "believe ": 2469,
      "In the ": 2470,
      "Yes, ": 2471,
      "eting ": 2472,
      "gen": 2473,
      "low ": 2474,
      "mus": 2475,
      "mother ": 2476,
      "row ": 2477,
      "to re": 2478,
      "to go ": 2479,
      "ing him ": 2480,
      "nothing": 2481,
      "act": 2482,
      "sit ": 2483,
      "whose ": 2484,
      "usual ": 2485,
      ". That ": 2486,
      "day, ": 2487,
      "close ": 2488,
      "past ": 2489,
      "desir": 2490,
      "felt that ": 2491,
      "“How ": 2492,
      "kissed ": 2493,
      "imagin": 2494,
      " of ": 2495,
      "Just ": 2496,
      "dut": 2497,
      "mas": 2498,
      "nur": 2499,
      "’ve ": 2500,
      "out, ": 2501,
      "ordin": 2502,
      "at the\r\n": 2503,
      "as it ": 2504,
      "asking ": 2505,
      "enter ": 2506,
      "wear": 2507,
      "expressed ": 2508,
      "“Ah, ": 2509,
      "charac": 2510,
      "rya Dmítriev": 2511,
      "As ": 2512,
      "ed of ": 2513,
      "hair ": 2514,
      "on her ": 2515,
      "that had ": 2516,
      "ed. “": 2517,
      "had a ": 2518,
      "ladi": 2519,
      "what he ": 2520,
      "? What ": 2521,
      "?” she ": 2522,
      "antly ": 2523,
      "servic": 2524,
      "where the ": 2525,
      "expected ": 2526,
      "are\r\n": 2527,
      "Anatole": 2528,
      "field ": 2529,
      "wanted to ": 2530,
      "immediately ": 2531,
      "military ": 2532,
      ";\r\n": 2533,
      "air ": 2534,
      "ire": 2535,
      "o\r\n": 2536,
      "post": 2537,
      "thy ": 2538,
      "infan": 2539,
      "concer": 2540,
      "tran": 2541,
      ". To ": 2542,
      "affe": 2543,
      "prob": 2544,
      "coat ": 2545,
      "silent": 2546,
      "later ": 2547,
      "struck ": 2548,
      "utenber": 2549,
      "This ": 2550,
      "ather": 2551,
      "mutter": 2552,
      "ped ": 2553,
      "sound ": 2554,
      "ín ": 2555,
      "as to ": 2556,
      "sett": 2557,
      "de-": 2558,
      "excep": 2559,
      "more\r\n": 2560,
      "ending ": 2561,
      "fire ": 2562,
      "sometimes ": 2563,
      "has been ": 2564,
      "after the ": 2565,
      "dinner ": 2566,
      "free ": 2567,
      "straight ": 2568,
      "good-": 2569,
      "getting ": 2570,
      "Mam": 2571,
      "ase": 2572,
      "indic": 2573,
      "ed to\r\n": 2574,
      "al, ": 2575,
      "liar ": 2576,
      "usu": 2577,
      "it and ": 2578,
      "which he had ": 2579,
      "what is ": 2580,
      "! W": 2581,
      "fav": 2582,
      "someone ": 2583,
      "smiled ": 2584,
      "should be ": 2585,
      "sat down ": 2586,
      "who, ": 2587,
      "strange ": 2588,
      "realiz": 2589,
      "St": 2590,
      "ju": 2591,
      "sun": 2592,
      "tho": 2593,
      "ery ": 2594,
      "ene": 2595,
      "to get ": 2596,
      "ing to the ": 2597,
      "in this ": 2598,
      "our\r\n": 2599,
      "ture ": 2600,
      "that, ": 2601,
      "ity and ": 2602,
      "before": 2603,
      "arriv": 2604,
      "surround": 2605,
      "arily ": 2606,
      "smile.\r\n": 2607,
      "visitor": 2608,
      "cting ": 2609,
      "push": 2610,
      "habit": 2611,
      "ome": 2612,
      "in their ": 2613,
      "lead": 2614,
      "his eyes ": 2615,
      "bed": 2616,
      "beau": 2617,
      "old\r\n": 2618,
      "lish": 2619,
      "use of ": 2620,
      "I don’t ": 2621,
      "concl": 2622,
      "s, the ": 2623,
      "who were ": 2624,
      "present ": 2625,
      "doing ": 2626,
      "blush": 2627,
      "there is ": 2628,
      "days ": 2629,
      "entered the ": 2630,
      "exclaim": 2631,
      "the countess ": 2632,
      "involunt": 2633,
      "En": 2634,
      "Ju": 2635,
      "hold ": 2636,
      "that he was ": 2637,
      "ound\r\n": 2638,
      "connec": 2639,
      "midd": 2640,
      "when the ": 2641,
      "lying ": 2642,
      "previ": 2643,
      "must": 2644,
      "sleep": 2645,
      "confid": 2646,
      "view": 2647,
      "Gener": 2648,
      "Iv": 2649,
      "bas": 2650,
      "sar ": 2651,
      "sed the ": 2652,
      "ings ": 2653,
      "separ": 2654,
      "that was ": 2655,
      "explain": 2656,
      "ise ": 2657,
      "angry ": 2658,
      "man who ": 2659,
      "own\r\n": 2660,
      "flu": 2661,
      "strong": 2662,
      ". On ": 2663,
      "sense ": 2664,
      "Sónya, ": 2665,
      "reason ": 2666,
      "stead ": 2667,
      "Napoleon’s ": 2668,
      "Uncle": 2669,
      "acquaint": 2670,
      "Gutenber": 2671,
      "ele": 2672,
      "ily ": 2673,
      "my\r\n": 2674,
      "sl": 2675,
      "íkh": 2676,
      "y the ": 2677,
      "lean": 2678,
      "sacri": 2679,
      "succ": 2680,
      ",” replied ": 2681,
      "you have ": 2682,
      "up\r\n": 2683,
      "law ": 2684,
      "weak": 2685,
      "angri": 2686,
      "everything": 2687,
      "burn": 2688,
      "Emperor’s ": 2689,
      "feeling of ": 2690,
      "brea": 2691,
      "excellency": 2692,
      "answer ": 2693,
      "It’s ": 2694,
      "flo": 2695,
      "hen": 2696,
      "s to the ": 2697,
      "act ": 2698,
      "by his ": 2699,
      "up the ": 2700,
      "“Why ": 2701,
      "something": 2702,
      "nig": 2703,
      "serf": 2704,
      "speci": 2705,
      "clear ": 2706,
      "effe": 2707,
      "himself, ": 2708,
      "stepp": 2709,
      "crowd": 2710,
      "conscious": 2711,
      "polit": 2712,
      "memor": 2713,
      "respect": 2714,
      "pray": 2715,
      "cul": 2716,
      "glad ": 2717,
      "thor": 2718,
      "er.\r\n": 2719,
      "ennig": 2720,
      "ing,\r\n": 2721,
      "to him": 2722,
      "as soon ": 2723,
      "es,\r\n": 2724,
      "not only ": 2725,
      "ound, ": 2726,
      "exec": 2727,
      "by a ": 2728,
      "face and ": 2729,
      "movement": 2730,
      "flush": 2731,
      "scar": 2732,
      "“It ": 2733,
      "seeing ": 2734,
      "high ": 2735,
      "run ": 2736,
      "does not ": 2737,
      "staff ": 2738,
      "wrote ": 2739,
      "beauti": 2740,
      "Vi": 2741,
      "four ": 2742,
      "gor": 2743,
      "ject": 2744,
      "tem": 2745,
      "that this ": 2746,
      "an in": 2747,
      "unable to ": 2748,
      "le of ": 2749,
      "tern": 2750,
      "from the\r\n": 2751,
      "perán": 2752,
      "me to ": 2753,
      "spr": 2754,
      "my dear": 2755,
      ". In the ": 2756,
      "command ": 2757,
      "fine ": 2758,
      "down the ": 2759,
      "guest": 2760,
      "one’s ": 2761,
      "    * ": 2762,
      "Nicholas, ": 2763,
      "running ": 2764,
      "engag": 2765,
      "window": 2766,
      "together ": 2767,
      "interrupted ": 2768,
      "e’s ": 2769,
      "fle": 2770,
      "home ": 2771,
      "put": 2772,
      "pite ": 2773,
      "yes, ": 2774,
      "and then ": 2775,
      "repor": 2776,
      "his own ": 2777,
      "his head ": 2778,
      "that it was ": 2779,
      "asle": 2780,
      "no\r\n": 2781,
      "noti": 2782,
      "say, ": 2783,
      "ght\r\n": 2784,
      "sister": 2785,
      "ed. ": 2786,
      "shar": 2787,
      "heard": 2788,
      "else ": 2789,
      "rink": 2790,
      "vice ": 2791,
      "“Wh": 2792,
      "grac": 2793,
      "Pierre\r\n": 2794,
      "moving ": 2795,
      "descri": 2796,
      "before the ": 2797,
      "effor": 2798,
      "history ": 2799,
      "women ": 2800,
      "myself ": 2801,
      "peasant": 2802,
      "cked ": 2803,
      "ell ": 2804,
      "fut": 2805,
      "sn": 2806,
      "s had ": 2807,
      "anx": 2808,
      "y to ": 2809,
      "at all ": 2810,
      "es were ": 2811,
      "spent ": 2812,
      "ilí": 2813,
      "smiling ": 2814,
      "dinner": 2815,
      "left the ": 2816,
      "fresh ": 2817,
      "inten": 2818,
      "father’s ": 2819,
      "glanced ": 2820,
      "attention ": 2821,
      "short ": 2822,
      "twenty-": 2823,
      "commander in chief": 2824,
      "Márya Dmítriev": 2825,
      "Ily": 2826,
      "Kur": 2827,
      "Or": 2828,
      "Tíkh": 2829,
      "equ": 2830,
      "s and\r\n": 2831,
      "ed himself ": 2832,
      "report": 2833,
      "a c": 2834,
      "entr": 2835,
      "rather ": 2836,
      "the crow": 2837,
      "? T": 2838,
      "went on ": 2839,
      "overe": 2840,
      "tic ": 2841,
      "drove ": 2842,
      "join": 2843,
      ". One ": 2844,
      "brilli": 2845,
      "“If ": 2846,
      "“It’s ": 2847,
      "looking at ": 2848,
      "speaking ": 2849,
      "themselv": 2850,
      "refle": 2851,
      "sym": 2852,
      "second ": 2853,
      "On ": 2854,
      "Pol": 2855,
      "V\r\n": 2856,
      "bloo": 2857,
      "den": 2858,
      "ka": 2859,
      "kno": 2860,
      "kne": 2861,
      "twi": 2862,
      "s in the ": 2863,
      ". Natásha ": 2864,
      "attr": 2865,
      "that it ": 2866,
      "that they ": 2867,
      "heal": 2868,
      "icha": 2869,
      "offer": 2870,
      "oppos": 2871,
      "neither ": 2872,
      "splen": 2873,
      "man\r\n": 2874,
      "attack ": 2875,
      "dden ": 2876,
      "hands ": 2877,
      "time to ": 2878,
      "come to ": 2879,
      "famil": 2880,
      "noticed ": 2881,
      "carriag": 2882,
      "It was ": 2883,
      "girl ": 2884,
      "satisfac": 2885,
      "181": 2886,
      "Hill": 2887,
      "Per": 2888,
      "could\r\n": 2889,
      "just": 2890,
      "kóv": 2891,
      "“He ": 2892,
      "th\r\n": 2893,
      "as he had ": 2894,
      "right, ": 2895,
      "an old ": 2896,
      "up, ": 2897,
      "fear ": 2898,
      "s and the ": 2899,
      "five ": 2900,
      "Pierre was ": 2901,
      "eyes.\r\n": 2902,
      "handsome ": 2903,
      ". We ": 2904,
      "into a ": 2905,
      "honor ": 2906,
      "watch": 2907,
      "doctor ": 2908,
      "-in": 2909,
      "III\r\n": 2910,
      "On the ": 2911,
      "ay": 2912,
      "b ": 2913,
      "dor": 2914,
      "eag": 2915,
      "gest": 2916,
      "ron ": 2917,
      "sw": 2918,
      "va": 2919,
      "rect": 2920,
      "es—": 2921,
      "ason": 2922,
      "sive ": 2923,
      "const": 2924,
      "trans": 2925,
      "more and ": 2926,
      "sole": 2927,
      "propos": 2928,
      "maid": 2929,
      "Russians ": 2930,
      "voice, ": 2931,
      "repeated ": 2932,
      "shouting ": 2933,
      "single ": 2934,
      "village ": 2935,
      "quickly ": 2936,
      "husband": 2937,
      "cheer": 2938,
      "together": 2939,
      "smoke ": 2940,
      "Bagratión ": 2941,
      "ágin": 2942,
      "Bennig": 2943,
      "Ch": 2944,
      "Having ": 2945,
      "Sperán": 2946,
      "ave ": 2947,
      "ies ": 2948,
      "land": 2949,
      "me\r\n": 2950,
      "n\r\n": 2951,
      "uc": 2952,
      "s he ": 2953,
      "s for ": 2954,
      "s from ": 2955,
      "into\r\n": 2956,
      "only\r\n": 2957,
      "ous\r\n": 2958,
      "ing at ": 2959,
      ". F": 2960,
      "chur": 2961,
      "in Moscow": 2962,
      "that his ": 2963,
      "pet": 2964,
      "about": 2965,
      "ago": 2966,
      "exp": 2967,
      "feet ": 2968,
      "meeting ": 2969,
      "some\r\n": 2970,
      "so much ": 2971,
      "going to ": 2972,
      "ance of ": 2973,
      "ence, ": 2974,
      "now\r\n": 2975,
      "intend": 2976,
      "na’s ": 2977,
      "remember ": 2978,
      "colum": 2979,
      "wish to ": 2980,
      "Bagratión": 2981,
      "various ": 2982,
      "Bezúkhov": 2983,
      "Eu": 2984,
      "Micha": 2985,
      "Vé": 2986,
      "bed ": 2987,
      "batter": 2988,
      "o’": 2989,
      "vít": 2990,
      "wan": 2991,
      "wol": 2992,
      "ang ": 2993,
      "esvít": 2994,
      "sem": 2995,
      "sed, ": 2996,
      "assum": 2997,
      "sign": 2998,
      "an un": 2999,
      "he’s ": 3000,
      "come": 3001,
      "respon": 3002,
      "impres": 3003,
      "which the ": 3004,
      "face.\r\n": 3005,
      "ed, but ": 3006,
      "turning ": 3007,
      "we are ": 3008,
      "“I am ": 3009,
      "sure ": 3010,
      "Prince Andrew’s ": 3011,
      "keep ": 3012,
      "added, ": 3013,
      "buil": 3014,
      "toward the ": 3015,
      "stopped ": 3016,
      "historians ": 3017,
      "árov": 3018,
      "I’m ": 3019,
      "particularly ": 3020,
      "Majest": 3021,
      "geni": 3022,
      "Juli": 3023,
      "Túsh": 3024,
      "ged ": 3025,
      "vent": 3026,
      "and to ": 3027,
      "st, ": 3028,
      "stup": 3029,
      "as they ": 3030,
      "that is ": 3031,
      "sir": 3032,
      "sight ": 3033,
      ", and a ": 3034,
      "said.\r\n": 3035,
      "rum": 3036,
      "caval": 3037,
      "if you ": 3038,
      "Russia ": 3039,
      "passion": 3040,
      "brac": 3041,
      "course ": 3042,
      "myself": 3043,
      "stret": 3044,
      "street": 3045,
      "want to ": 3046,
      "world": 3047,
      "satisfi": 3048,
      "learn": 3049,
      "probably ": 3050,
      "best ": 3051,
      "rad": 3052,
      "intell": 3053,
      "the first ": 3054,
      "ing their ": 3055,
      "ches ": 3056,
      "its\r\n": 3057,
      "secre": 3058,
      "leav": 3059,
      "list": 3060,
      "conception ": 3061,
      "else": 3062,
      "...\r\n": 3063,
      "impossible": 3064,
      "flank ": 3065,
      "anything": 3066,
      "desc": 3067,
      "knows ": 3068,
      "battal": 3069,
      "receiv": 3070,
      "Pétya": 3071,
      "Kutúzov’s ": 3072,
      "what": 3073,
      "phy": 3074,
      "during the ": 3075,
      "soul ": 3076,
      "demand": 3077,
      "-in-": 3078,
      "Euro": 3079,
      "-de-": 3080,
      "At ": 3081,
      "Bo": 3082,
      "bar": 3083,
      "cold ": 3084,
      "four": 3085,
      "jud": 3086,
      "na\r\n": 3087,
      "slight": 3088,
      "town": 3089,
      "s are ": 3090,
      "on.\r\n": 3091,
      "to say ": 3092,
      "ham": 3093,
      ". Prince Andrew ": 3094,
      "charm": 3095,
      "accep": 3096,
      "live ": 3097,
      "with the\r\n": 3098,
      "def": 3099,
      "compre": 3100,
      "the coun": 3101,
      "Natásha.\r\n": 3102,
      "loved ": 3103,
      "did not know ": 3104,
      "mention": 3105,
      "heart ": 3106,
      "ustom": 3107,
      "leaving ": 3108,
      "pointing ": 3109,
      "tail": 3110,
      "destroy": 3111,
      "hardly ": 3112,
      "Ivá": 3113,
      "ilíb": 3114,
      "-t": 3115,
      "Dan": 3116,
      "fro": 3117,
      "vir": 3118,
      "returned ": 3119,
      "return ": 3120,
      "ary, ": 3121,
      "of all ": 3122,
      "ity.\r\n": 3123,
      "least ": 3124,
      "asion": 3125,
      "living ": 3126,
      "roll": 3127,
      "ook": 3128,
      "ick ": 3129,
      "here, ": 3130,
      "which had ": 3131,
      "fact ": 3132,
      "remain ": 3133,
      "produc": 3134,
      "blue ": 3135,
      "went to the ": 3136,
      "preci": 3137,
      "Russia": 3138,
      "seem ": 3139,
      "Not ": 3140,
      "seemed to him ": 3141,
      "dark ": 3142,
      "carried ": 3143,
      "against the ": 3144,
      "death ": 3145,
      "promis": 3146,
      "180": 3147,
      "Alexander ": 3148,
      "frightened ": 3149,
      "artill": 3150,
      "favor": 3151,
      "ell": 3152,
      "glo": 3153,
      "hour": 3154,
      "ight": 3155,
      "red to ": 3156,
      "s; ": 3157,
      "ture": 3158,
      "w\r\n": 3159,
      "zh": 3160,
      "’t\r\n": 3161,
      ", as ": 3162,
      "ed the\r\n": 3163,
      "six": 3164,
      "did\r\n": 3165,
      "ed. The ": 3166,
      "had to ": 3167,
      "ood, ": 3168,
      "I shall ": 3169,
      "es the ": 3170,
      "confu": 3171,
      "det": 3172,
      "s, and\r\n": 3173,
      "ally": 3174,
      "allow": 3175,
      "ute ": 3176,
      "upon ": 3177,
      "fellow ": 3178,
      "Andrew ": 3179,
      "turned to ": 3180,
      "ance, ": 3181,
      "happiness ": 3182,
      "gather": 3183,
      "for the first ": 3184,
      "increas": 3185,
      "marsha": 3186,
      "heart": 3187,
      "drawn ": 3188,
      "tender": 3189,
      "thousand": 3190,
      "pointed ": 3191,
      "husband ": 3192,
      "strength ": 3193,
      "touch": 3194,
      "Rostopchín": 3195,
      "ject Gutenber": 3196,
      "Project Gutenber": 3197,
      "Gr": 3198,
      "Sch": 3199,
      "dom": 3200,
      "ness, ": 3201,
      "ot": 3202,
      "sinc": 3203,
      "tend": 3204,
      "wel": 3205,
      "yá": 3206,
      "thin ": 3207,
      "s a ": 3208,
      ", was ": 3209,
      "the sa": 3210,
      "belong": 3211,
      "is it ": 3212,
      "it to ": 3213,
      "comrad": 3214,
      "have a ": 3215,
      "! O": 3216,
      "s of his ": 3217,
      "rust": 3218,
      ". After ": 3219,
      "hors": 3220,
      "passa": 3221,
      "talked ": 3222,
      "knowing ": 3223,
      "knowled": 3224,
      "plain ": 3225,
      "Frenchman ": 3226,
      "quiet": 3227,
      "holding ": 3228,
      "farther ": 3229,
      "money ": 3230,
      "o’clo": 3231,
      "Bilíb": 3232,
      "brow": 3233,
      "fal": 3234,
      "ial ": 3235,
      "s. He ": 3236,
      "tone ": 3237,
      "wit": 3238,
      "this, ": 3239,
      "instead ": 3240,
      "ingu": 3241,
      "reli": 3242,
      "of them ": 3243,
      "he felt ": 3244,
      "ly to ": 3245,
      "divi": 3246,
      "unexpect": 3247,
      "es to ": 3248,
      "hero": 3249,
      "the cor": 3250,
      "dread": 3251,
      "arms ": 3252,
      "presence ": 3253,
      "atáev": 3254,
      "cause ": 3255,
      "ation.\r\n": 3256,
      "litt": 3257,
      "officer, ": 3258,
      "everybody ": 3259,
      ". With ": 3260,
      "lifted ": 3261,
      "regard ": 3262,
      "know, ": 3263,
      "fool": 3264,
      "recall": 3265,
      "brother ": 3266,
      "continually ": 3267,
      "for a long ": 3268,
      "CHAPTER XX": 3269,
      "among the ": 3270,
      "contrary ": 3271,
      ". Every": 3272,
      "Hélène ": 3273,
      "Karatáev": 3274,
      "Alpátych ": 3275,
      "mistak": 3276,
      "Nesvít": 3277,
      "There ": 3278,
      "call ": 3279,
      "ge, ": 3280,
      "jum": 3281,
      "town ": 3282,
      "a few ": 3283,
      "in Moscow ": 3284,
      "when\r\n": 3285,
      "deep ": 3286,
      "embrac": 3287,
      "ally\r\n": 3288,
      "quit": 3289,
      "trou": 3290,
      "how to ": 3291,
      "your excellency": 3292,
      "author": 3293,
      "keep": 3294,
      "able\r\n": 3295,
      "Denísov, ": 3296,
      "colon": 3297,
      "galloped ": 3298,
      "daughter ": 3299,
      "convinc": 3300,
      "Re": 3301,
      "To ": 3302,
      "oll": 3303,
      "sen ": 3304,
      "“B": 3305,
      ", his ": 3306,
      "he saw ": 3307,
      "sequ": 3308,
      "divid": 3309,
      "lived ": 3310,
      "with its ": 3311,
      "ely\r\n": 3312,
      "perhaps ": 3313,
      "there, ": 3314,
      "very\r\n": 3315,
      "face": 3316,
      "teen ": 3317,
      "began": 3318,
      "bling ": 3319,
      "ation and ": 3320,
      "ly, and ": 3321,
      "feeling": 3322,
      "cann": 3323,
      "Borís": 3324,
      "distri": 3325,
      "therefore ": 3326,
      "invit": 3327,
      "calm": 3328,
      "showed ": 3329,
      "middle ": 3330,
      "special ": 3331,
      "Hi": 3332,
      "Mor": 3333,
      "et, ": 3334,
      "harm": 3335,
      "ich ": 3336,
      "jour": 3337,
      "van": 3338,
      "wag": 3339,
      "—a ": 3340,
      "“Uncle": 3341,
      ", which ": 3342,
      "hile ": 3343,
      "at on": 3344,
      "forget ": 3345,
      "dipl": 3346,
      "amp": 3347,
      "out his ": 3348,
      "rest ": 3349,
      "all his ": 3350,
      "you to ": 3351,
      "meant ": 3352,
      "! What ": 3353,
      "faces ": 3354,
      "!” shouted ": 3355,
      "came to ": 3356,
      "passing ": 3357,
      "contemp": 3358,
      "clearly ": 3359,
      "over his ": 3360,
      "dressing ": 3361,
      "possibility ": 3362,
      "French\r\n": 3363,
      "silent ": 3364,
      "struction": 3365,
      "advant": 3366,
      "crowd ": 3367,
      "battle of ": 3368,
      "dispos": 3369,
      "remarked ": 3370,
      "number ": 3371,
      "if\r\n": 3372,
      "danger": 3373,
      "freedom ": 3374,
      "Smolénsk ": 3375,
      "diplom": 3376,
      "!... ": 3377,
      "Bar": 3378,
      "So ": 3379,
      "await": 3380,
      "bi": 3381,
      "fon": 3382,
      "host": 3383,
      "ith": 3384,
      "á ": 3385,
      "real ": 3386,
      "er than ": 3387,
      "ate, ": 3388,
      "beaut": 3389,
      "liv": 3390,
      "I will ": 3391,
      ",” answered ": 3392,
      ". How ": 3393,
      "!” cried ": 3394,
      "fig": 3395,
      "gras": 3396,
      "grown ": 3397,
      "yourself": 3398,
      "ful, ": 3399,
      "pleasure ": 3400,
      "voices ": 3401,
      "voice.\r\n": 3402,
      "help": 3403,
      "distingu": 3404,
      "company ": 3405,
      "chair": 3406,
      "asked.\r\n": 3407,
      "German": 3408,
      "From the ": 3409,
      "family ": 3410,
      "aim ": 3411,
      "squad": 3412,
      "beautiful ": 3413,
      "solem": 3414,
      "cop": 3415,
      "hard ": 3416,
      "ker": 3417,
      "ne, ": 3418,
      "yes": 3419,
      "—that ": 3420,
      "s it ": 3421,
      "intim": 3422,
      "ers": 3423,
      ", and so ": 3424,
      "iron": 3425,
      "I was ": 3426,
      "deci": 3427,
      "deep": 3428,
      "for her ": 3429,
      "comfort": 3430,
      "sugg": 3431,
      "him a ": 3432,
      ",” said\r\n": 3433,
      "need ": 3434,
      "from a ": 3435,
      "way, ": 3436,
      "radi": 3437,
      "they are ": 3438,
      "spread ": 3439,
      "manag": 3440,
      "plan ": 3441,
      "ever, ": 3442,
      "Pierre had ": 3443,
      "at the same ": 3444,
      ". So ": 3445,
      "went to ": 3446,
      "voice": 3447,
      "continued ": 3448,
      "consist": 3449,
      "hand and ": 3450,
      "sorry ": 3451,
      "pull": 3452,
      "Bolkónski ": 3453,
      "drawing room ": 3454,
      "gray ": 3455,
      "state of ": 3456,
      "written ": 3457,
      "familiar ": 3458,
      "Rostopchín ": 3459,
      "tomorrow": 3460,
      "consciousness ": 3461,
      "wanted ": 3462,
      "Ser": 3463,
      "cat": 3464,
      "gard": 3465,
      "sovere": 3466,
      "ub": 3467,
      "d Hill": 3468,
      "reproach": 3469,
      "er to ": 3470,
      "a and ": 3471,
      "ese ": 3472,
      "rid": 3473,
      "” (": 3474,
      "rother": 3475,
      "ability ": 3476,
      "one another ": 3477,
      "al and ": 3478,
      "them\r\n": 3479,
      "! And ": 3480,
      "more": 3481,
      "ester": 3482,
      "old man ": 3483,
      "? I ": 3484,
      "attack": 3485,
      "came\r\n": 3486,
      "turning to ": 3487,
      "maj": 3488,
      "clou": 3489,
      "“That’s ": 3490,
      "just as ": 3491,
      "head, ": 3492,
      "change ": 3493,
      "added ": 3494,
      "the countess": 3495,
      "field": 3496,
      "prisoners ": 3497,
      "rushed ": 3498,
      "Anna Pávlovna ": 3499,
      "irrit": 3500,
      "justi": 3501,
      "involuntarily ": 3502,
      "General ": 3503,
      "brilliant ": 3504,
      "comprehen": 3505,
      "bent ": 3506,
      "k\r\n": 3507,
      "mel": 3508,
      "swe": 3509,
      "sway": 3510,
      "tly ": 3511,
      "influ": 3512,
      "orm": 3513,
      "in an ": 3514,
      "ed: ": 3515,
      "liked ": 3516,
      "about\r\n": 3517,
      "And\r\n": 3518,
      "all this ": 3519,
      "ative ": 3520,
      "have you ": 3521,
      ". “But ": 3522,
      ". “You ": 3523,
      ". “What ": 3524,
      "what a ": 3525,
      "dream": 3526,
      "plum": 3527,
      "sob": 3528,
      "proper": 3529,
      "growing ": 3530,
      "tion of ": 3531,
      "yourself ": 3532,
      "flow": 3533,
      "spect": 3534,
      "form ": 3535,
      "despite ": 3536,
      "“I have ": 3537,
      "regul": 3538,
      ". Only ": 3539,
      "interest ": 3540,
      "marry ": 3541,
      "evident ": 3542,
      "look at ": 3543,
      "expecting ": 3544,
      "peasant ": 3545,
      "reached ": 3546,
      "Bald Hill": 3547,
      "stair": 3548,
      "world ": 3549,
      "during ": 3550,
      "walked ": 3551,
      "window ": 3552,
      "staff": 3553,
      "opinion ": 3554,
      "Balashëv ": 3555,
      "Mamma": 3556,
      "virtu": 3557,
      "detach": 3558,
      "Sh": 3559,
      "Your ": 3560,
      "aul": 3561,
      "ba": 3562,
      "fall ": 3563,
      "glit": 3564,
      "g-t": 3565,
      "late ": 3566,
      "mag": 3567,
      "rov": 3568,
      "wood": 3569,
      "zo": 3570,
      "’s": 3571,
      "asham": 3572,
      "within ": 3573,
      "sadd": 3574,
      "him. He ": 3575,
      "whole": 3576,
      "with a\r\n": 3577,
      "ospit": 3578,
      "conce": 3579,
      "appar": 3580,
      "ally, ": 3581,
      "ut\r\n": 3582,
      "neigh": 3583,
      "ought to ": 3584,
      "perfe": 3585,
      "in the same ": 3586,
      "the ca": 3587,
      "plo": 3588,
      "began\r\n": 3589,
      "he had been ": 3590,
      "ground ": 3591,
      "them to ": 3592,
      "mast": 3593,
      "ances ": 3594,
      "after a ": 3595,
      "dren ": 3596,
      "should not ": 3597,
      "making ": 3598,
      "threw ": 3599,
      "himself\r\n": 3600,
      "latter ": 3601,
      "Moscow, ": 3602,
      "listened to ": 3603,
      "glanced at ": 3604,
      "half": 3605,
      "behind the ": 3606,
      "condition ": 3607,
      "circum": 3608,
      "character": 3609,
      "sympa": 3610,
      "Chri": 3611,
      "), ": 3612,
      ",’ ": 3613,
      "Ol": 3614,
      "That ": 3615,
      "bly ": 3616,
      "cru": 3617,
      "eu": 3618,
      "iel": 3619,
      "ken": 3620,
      "knew": 3621,
      "most": 3622,
      "o, ": 3623,
      "sal": 3624,
      "wall": 3625,
      "z ": 3626,
      "ary": 3627,
      ". C": 3628,
      "of this ": 3629,
      "he could not ": 3630,
      "er of ": 3631,
      "itt": 3632,
      "oly": 3633,
      "lit ": 3634,
      "ood\r\n": 3635,
      "approv": 3636,
      "sup": 3637,
      "rah": 3638,
      ". “And ": 3639,
      "spit": 3640,
      "caus": 3641,
      "when she ": 3642,
      "when they ": 3643,
      "boy ": 3644,
      ",” said he": 3645,
      "still\r\n": 3646,
      "went out ": 3647,
      "hand.\r\n": 3648,
      "sense": 3649,
      "princess, ": 3650,
      "saying": 3651,
      "“A ": 3652,
      ". Be": 3653,
      "true ": 3654,
      "“My ": 3655,
      "years ": 3656,
      "kind ": 3657,
      "year ": 3658,
      "Austrian ": 3659,
      "collec": 3660,
      "accord": 3661,
      "suggest": 3662,
      "Su": 3663,
      "cut ": 3664,
      "pill": 3665,
      "ád": 3666,
      "íl": 3667,
      "incl": 3668,
      "and had ": 3669,
      "or, ": 3670,
      "ing with ": 3671,
      "ing of the ": 3672,
      "was to ": 3673,
      "forgo": 3674,
      "without\r\n": 3675,
      "le and ": 3676,
      ",” and ": 3677,
      "! D": 3678,
      "fact that ": 3679,
      "s of the\r\n": 3680,
      "up his ": 3681,
      "camp ": 3682,
      "Rostóvs’ ": 3683,
      "other\r\n": 3684,
      "your\r\n": 3685,
      "ation of the ": 3686,
      "ful\r\n": 3687,
      "Napoleon, ": 3688,
      "fresh": 3689,
      ". On the ": 3690,
      "No, ": 3691,
      "head and ": 3692,
      "ished ": 3693,
      "silently ": 3694,
      "continued to ": 3695,
      "soldiers, ": 3696,
      "adjutant": 3697,
      "bridge ": 3698,
      "examin": 3699,
      "ordinary ": 3700,
      "asleep": 3701,
      "journe": 3702,
      "Kr": 3703,
      "Mur": 3704,
      "bers ": 3705,
      "bene": 3706,
      "hospit": 3707,
      "tin": 3708,
      "t, and ": 3709,
      "ution ": 3710,
      "úk": 3711,
      "s on the ": 3712,
      "er’s ": 3713,
      "ant\r\n": 3714,
      "ed on the ": 3715,
      "hill ": 3716,
      "ing in ": 3717,
      ". G": 3718,
      "of an ": 3719,
      "of their ": 3720,
      "in a\r\n": 3721,
      "will\r\n": 3722,
      "bear": 3723,
      "sad": 3724,
      "defe": 3725,
      "for some ": 3726,
      "super": 3727,
      "!” thought ": 3728,
      "begun ": 3729,
      ". She was ": 3730,
      "blam": 3731,
      "before, ": 3732,
      "music": 3733,
      "broken ": 3734,
      "took the ": 3735,
      ",” he said, ": 3736,
      "hussar ": 3737,
      "tell you ": 3738,
      "darkn": 3739,
      "expression of ": 3740,
      "awk": 3741,
      "curi": 3742,
      ". Now ": 3743,
      "ágin ": 3744,
      "spirit": 3745,
      "activity ": 3746,
      "opinion": 3747,
      "Anna Mikháylovna ": 3748,
      "wonder": 3749,
      "campaign": 3750,
      "Vien": 3751,
      "notice ": 3752,
      "High": 3753,
      "Lor": 3754,
      "My ": 3755,
      "bare ": 3756,
      "bad ": 3757,
      "pe ": 3758,
      "ra ": 3759,
      "ror ": 3760,
      "warm": 3761,
      "“F": 3762,
      "any\r\n": 3763,
      "ory ": 3764,
      "rely ": 3765,
      "of which ": 3766,
      "a little ": 3767,
      "escap": 3768,
      "itself": 3769,
      "en to ": 3770,
      "shown ": 3771,
      "event ": 3772,
      "ounted ": 3773,
      "whist": 3774,
      "commis": 3775,
      "y, the ": 3776,
      "ceed": 3777,
      "they all ": 3778,
      "face\r\n": 3779,
      "fight ": 3780,
      "s of a ": 3781,
      "boy": 3782,
      "Rostóv’s ": 3783,
      "“We ": 3784,
      "e of a ": 3785,
      "ed by a ": 3786,
      "poor ": 3787,
      "thought of ": 3788,
      "friend ": 3789,
      "orders ": 3790,
      "obli": 3791,
      "himself.\r\n": 3792,
      "entered ": 3793,
      "consider ": 3794,
      "countess": 3795,
      "account ": 3796,
      "reached the ": 3797,
      "greater ": 3798,
      "well-": 3799,
      "commander in chief ": 3800,
      "caught ": 3801,
      "across the ": 3802,
      "impossible to ": 3803,
      "group ": 3804,
      "1812": 3805,
      "cannon ": 3806,
      "Mary ": 3807,
      "With ": 3808,
      "cas": 3809,
      "hour ": 3810,
      "ke, ": 3811,
      "ner, ": 3812,
      "s’": 3813,
      "usi": 3814,
      "ve, ": 3815,
      "wo ": 3816,
      ", to ": 3817,
      "refer": 3818,
      "ing the\r\n": 3819,
      "hast": 3820,
      ". Rostóv ": 3821,
      "a long ": 3822,
      "as I ": 3823,
      "essa": 3824,
      "was so ": 3825,
      "ace ": 3826,
      "sie": 3827,
      "direct": 3828,
      ", and the\r\n": 3829,
      "shop": 3830,
      "irre": 3831,
      "pecu": 3832,
      "which, ": 3833,
      "term": 3834,
      "nearly ": 3835,
      "said that ": 3836,
      "mill": 3837,
      "! You ": 3838,
      "thought, ": 3839,
      "ppoly": 3840,
      "ting the ": 3841,
      "attend": 3842,
      "parti": 3843,
      ". He had ": 3844,
      "remov": 3845,
      "serve ": 3846,
      "service ": 3847,
      "before\r\n": 3848,
      "Russian\r\n": 3849,
      "arrived ": 3850,
      "these\r\n": 3851,
      "sterlit": 3852,
      "send ": 3853,
      "ness and ": 3854,
      "CHAPTER V": 3855,
      "changed ": 3856,
      "human": 3857,
      "quiet ": 3858,
      "between the ": 3859,
      "ence.\r\n": 3860,
      "natural ": 3861,
      "compani": 3862,
      "rapidly ": 3863,
      "glitter": 3864,
      "circumst": 3865,
      "Ni": 3866,
      "band": 3867,
      "bra": 3868,
      "fold": 3869,
      "gain": 3870,
      "ron": 3871,
      "sme": 3872,
      "s: ": 3873,
      "’t": 3874,
      "“P": 3875,
      "th.\r\n": 3876,
      "s on ": 3877,
      "s which ": 3878,
      "ine": 3879,
      ", for ": 3880,
      "enth": 3881,
      "ous and ": 3882,
      "ed them ": 3883,
      "to do": 3884,
      "to take ": 3885,
      ". For ": 3886,
      "alread": 3887,
      "assur": 3888,
      "not, ": 3889,
      "nodd": 3890,
      "acted ": 3891,
      "him—": 3892,
      "amid ": 3893,
      "her and ": 3894,
      "ely, ": 3895,
      "ed to be ": 3896,
      "person ": 3897,
      "ceas": 3898,
      "cely ": 3899,
      "! H": 3900,
      "estat": 3901,
      "fice ": 3902,
      "se and ": 3903,
      "love": 3904,
      "he had not ": 3905,
      "   ": 3906,
      "ation\r\n": 3907,
      "went up to ": 3908,
      "past": 3909,
      "himself and ": 3910,
      "glance ": 3911,
      "too, ": 3912,
      "dressed ": 3913,
      "“To ": 3914,
      "pleasure": 3915,
      ". I am ": 3916,
      "silence ": 3917,
      "occasion": 3918,
      "knew that ": 3919,
      "round the ": 3920,
      "torment": 3921,
      "front ": 3922,
      "sleigh": 3923,
      "strain": 3924,
      "Borís, ": 3925,
      "Denísov’s ": 3926,
      "myster": 3927,
      "travel": 3928,
      "imagine ": 3929,
      "Cossack ": 3930,
      "German ": 3931,
      "Hélène": 3932,
      "study ": 3933,
      "like\r\n": 3934,
      "Austerlit": 3935,
      "Berg ": 3936,
      "scream": 3937,
      "Prussi": 3938,
      "Eng": 3939,
      "anxi": 3940,
      "gloom": 3941,
      "Hippoly": 3942,
      "Barc": 3943,
      "spectac": 3944,
      "mur": 3945,
      "y—": 3946,
      "ed at the ": 3947,
      "ing, but ": 3948,
      "reti": 3949,
      "at all": 3950,
      "cher": 3951,
      "ity\r\n": 3952,
      "sely ": 3953,
      "was in ": 3954,
      "forest": 3955,
      "olon": 3956,
      "dish": 3957,
      ", and then ": 3958,
      "with him ": 3959,
      "she, ": 3960,
      "shook ": 3961,
      "all these ": 3962,
      "neck": 3963,
      "thoughts ": 3964,
      "d, but ": 3965,
      "?” thought ": 3966,
      "box": 3967,
      "Rostóv.\r\n": 3968,
      "will not ": 3969,
      "grad": 3970,
      "horse, ": 3971,
      "Natásha and ": 3972,
      "glad": 3973,
      "burst ": 3974,
      "frien": 3975,
      "bright ": 3976,
      "French, ": 3977,
      "capit": 3978,
      "threat": 3979,
      "Prince Andrew.\r\n": 3980,
      "ready to ": 3981,
      "told him ": 3982,
      "news ": 3983,
      "chair ": 3984,
      "children ": 3985,
      "carry ": 3986,
      "wards ": 3987,
      "Countess M": 3988,
      "name ": 3989,
      "away, ": 3990,
      "retreat ": 3991,
      "loud": 3992,
      "dropp": 3993,
      "Borodinó ": 3994,
      "announc": 3995,
      "future ": 3996,
      ".) ": 3997,
      "Com": 3998,
      "One ": 3999,
      "dam": 4000,
      "eal": 4001,
      "ging ": 4002,
      "line ": 4003,
      "yester": 4004,
      ", that ": 4005,
      "armi": 4006,
      "step ": 4007,
      "as you ": 4008,
      "chárov": 4009,
      "set": 4010,
      "that had been ": 4011,
      "him,\r\n": 4012,
      "sig": 4013,
      "six ": 4014,
      "lish ": 4015,
      "lips ": 4016,
      "you.”\r\n": 4017,
      "not a ": 4018,
      "detail": 4019,
      "explan": 4020,
      "comes ": 4021,
      "allow ": 4022,
      "there\r\n": 4023,
      "lay": 4024,
      ". “D": 4025,
      ". Her ": 4026,
      "trad": 4027,
      "week": 4028,
      "dog": 4029,
      "about to ": 4030,
      "move ": 4031,
      "men and ": 4032,
      "spee": 4033,
      "smoo": 4034,
      "still more ": 4035,
      "guchárov": 4036,
      "room and ": 4037,
      "made a ": 4038,
      "there’s ": 4039,
      "highest ": 4040,
      "ide-de-": 4041,
      "side of the ": 4042,
      "devo": 4043,
      "Princess Mary, ": 4044,
      "servant": 4045,
      "book": 4046,
      "cheek": 4047,
      "addressing ": 4048,
      "militi": 4049,
      "to meet ": 4050,
      "retreat": 4051,
      "society ": 4052,
      "afraid of ": 4053,
      "avoid ": 4054,
      "certainly ": 4055,
      "settled ": 4056,
      "except ": 4057,
      "column": 4058,
      "Boguchárov": 4059,
      ")\r\n": 4060,
      "Only ": 4061,
      "Pfu": 4062,
      "barr": 4063,
      "ear ": 4064,
      "fas": 4065,
      "gle": 4066,
      "rul": 4067,
      "top": 4068,
      "vol": 4069,
      "“E": 4070,
      "“but ": 4071,
      "then\r\n": 4072,
      "thank ": 4073,
      "insist": 4074,
      "anter": 4075,
      "anci": 4076,
      "inging ": 4077,
      "org": 4078,
      "ate\r\n": 4079,
      "in and ": 4080,
      "in my ": 4081,
      "it, and ": 4082,
      "se.\r\n": 4083,
      "seven ": 4084,
      "his face ": 4085,
      "lies ": 4086,
      "of the French ": 4087,
      "deal": 4088,
      "for the\r\n": 4089,
      "her, and ": 4090,
      "what the ": 4091,
      "the cap": 4092,
      "estab": 4093,
      "figu": 4094,
      ". The": 4095,
      "th and ": 4096,
      "; the ": 4097,
      "happiness": 4098,
      "without a ": 4099,
      "drun": 4100,
      "strong ": 4101,
      "burning ": 4102,
      "dress": 4103,
      "eyes and ": 4104,
      "corner ": 4105,
      "prince, ": 4106,
      "women": 4107,
      "wrong": 4108,
      "wishing to ": 4109,
      "enemy’s ": 4110,
      "wheel": 4111,
      "break": 4112,
      "hope": 4113,
      "idea ": 4114,
      "calm ": 4115,
      "order to ": 4116,
      "accustom": 4117,
      "peasants ": 4118,
      "stay": 4119,
      "attention": 4120,
      "children": 4121,
      "my dear fellow": 4122,
      "avoid": 4123,
      "     * ": 4124,
      "infantry ": 4125,
      "those\r\n": 4126,
      "exclaimed ": 4127,
      "execut": 4128,
      "putting ": 4129,
      "Project Gutenberg-t": 4130,
      "whole\r\n": 4131,
      "Bu": 4132,
      "air": 4133,
      "carr": 4134,
      "icon": 4135,
      "king": 4136,
      "pt ": 4137,
      "pun": 4138,
      "s! ": 4139,
      "uz": 4140,
      "vex": 4141,
      "ed and\r\n": 4142,
      "ing—": 4143,
      "sto": 4144,
      "state ": 4145,
      "chest": 4146,
      "itted ": 4147,
      "alone": 4148,
      "riding ": 4149,
      "him, but ": 4150,
      "sides": 4151,
      "tip": 4152,
      "educ": 4153,
      "with their ": 4154,
      "had happen": 4155,
      "ents ": 4156,
      "decl": 4157,
      "age, ": 4158,
      "from her ": 4159,
      "laid ": 4160,
      "meet ": 4161,
      ". “H": 4162,
      "old prince ": 4163,
      "tee": 4164,
      "? And ": 4165,
      "ruin": 4166,
      "still": 4167,
      "felt\r\n": 4168,
      "mini": 4169,
      "into his ": 4170,
      "house, ": 4171,
      "go to ": 4172,
      "head.\r\n": 4173,
      "Russian army ": 4174,
      "motion": 4175,
      "month": 4176,
      "relations ": 4177,
      "away.\r\n": 4178,
      "gazing ": 4179,
      "prisoner": 4180,
      "shir": 4181,
      "surprised ": 4182,
      "nonsense": 4183,
      "peace": 4184,
      "beginning ": 4185,
      "physic": 4186,
      "marshal": 4187,
      "o’clock ": 4188,
      "forgot": 4189,
      "Dol": 4190,
      "Now ": 4191,
      "So": 4192,
      "aide-de-": 4193,
      "bon": 4194,
      "dn’t ": 4195,
      "obe": 4196,
      "pist": 4197,
      "te\r\n": 4198,
      "te, ": 4199,
      "ty, ": 4200,
      "ving\r\n": 4201,
      "s his ": 4202,
      ", so ": 4203,
      "enorm": 4204,
      "one.\r\n": 4205,
      "arch": 4206,
      "hat\r\n": 4207,
      "he could ": 4208,
      "at this ": 4209,
      "see, ": 4210,
      "was being ": 4211,
      "ol ": 4212,
      "account": 4213,
      "dign": 4214,
      "timid": 4215,
      "ed—": 4216,
      "and,\r\n": 4217,
      "us, ": 4218,
      "it would be ": 4219,
      "her face ": 4220,
      "convic": 4221,
      "ther\r\n": 4222,
      "what I ": 4223,
      "what he had ": 4224,
      "oursel": 4225,
      "weal": 4226,
      "fici": 4227,
      "ations, ": 4228,
      "grat": 4229,
      "two\r\n": 4230,
      "handker": 4231,
      "like the ": 4232,
      "s, and the ": 4233,
      "am I ": 4234,
      "“I don’t ": 4235,
      "ble\r\n": 4236,
      "effort": 4237,
      "again, ": 4238,
      "“They ": 4239,
      "please ": 4240,
      "broad": 4241,
      "audi": 4242,
      "spoken ": 4243,
      "followed ": 4244,
      "larg": 4245,
      "the sound ": 4246,
      "cart": 4247,
      "considered ": 4248,
      "wife, ": 4249,
      "direction": 4250,
      "Countess ": 4251,
      "where": 4252,
      "where\r\n": 4253,
      "necessary to ": 4254,
      "simply ": 4255,
      "concern": 4256,
      "effect ": 4257,
      "gorúk": 4258,
      "more and more ": 4259,
      "cavalry ": 4260,
      "Europe": 4261,
      "neighbor": 4262,
      "spite of ": 4263,
      "Dolgorúk": 4264,
      "Dav": 4265,
      "d’": 4266,
      "dying ": 4267,
      "ek ": 4268,
      "fun": 4269,
      "gro": 4270,
      "hang": 4271,
      "kill ": 4272,
      "lost": 4273,
      "nation": 4274,
      "p, ": 4275,
      "per ": 4276,
      "ppe": 4277,
      "piti": 4278,
      "sli": 4279,
      "sing the ": 4280,
      "slow": 4281,
      "we\r\n": 4282,
      "’s, ": 4283,
      "ince ": 4284,
      "inhabit": 4285,
      "erly ": 4286,
      "onto the ": 4287,
      "ous, ": 4288,
      "regre": 4289,
      "represent": 4290,
      "a good ": 4291,
      "they": 4292,
      "leg ": 4293,
      "that day ": 4294,
      "accompani": 4295,
      "unknown ": 4296,
      "compar": 4297,
      ",” repli": 4298,
      "ut, ": 4299,
      "by the\r\n": 4300,
      "shad": 4301,
      "ult": 4302,
      "they have ": 4303,
      "spor": 4304,
      "this is ": 4305,
      "party ": 4306,
      "eye": 4307,
      "fail": 4308,
      "ended ": 4309,
      "bled ": 4310,
      "there was a ": 4311,
      "common ": 4312,
      "hand, ": 4313,
      "clas": 4314,
      "flank": 4315,
      "deser": 4316,
      "despa": 4317,
      "ski, ": 4318,
      "dragg": 4319,
      "moment, ": 4320,
      "reply ": 4321,
      "again\r\n": 4322,
      "observ": 4323,
      "whom he ": 4324,
      ". But\r\n": 4325,
      "bring ": 4326,
      "think of ": 4327,
      "subjec": 4328,
      "sorrow": 4329,
      "end of the ": 4330,
      "perio": 4331,
      "bull": 4332,
      "affair ": 4333,
      "ance.\r\n": 4334,
      "stay ": 4335,
      "sides ": 4336,
      "drive ": 4337,
      "numer": 4338,
      "God’s ": 4339,
      "business ": 4340,
      "uniform ": 4341,
      "thrown ": 4342,
      "morning": 4343,
      "the chil": 4344,
      "beyond the ": 4345,
      "slightly ": 4346,
      "curios": 4347,
      "At the ": 4348,
      "Tsar": 4349,
      "by": 4350,
      "ball ": 4351,
      "cold": 4352,
      "hes": 4353,
      "never": 4354,
      "ping ": 4355,
      "ting\r\n": 4356,
      "uff": 4357,
      "vely ": 4358,
      "zz": 4359,
      "thro": 4360,
      "the more ": 4361,
      "ench": 4362,
      "enjoy": 4363,
      "ed their ": 4364,
      "ary\r\n": 4365,
      "to have ": 4366,
      "esh": 4367,
      "chéev": 4368,
      "second": 4369,
      "on which ": 4370,
      "beat": 4371,
      "was still ": 4372,
      "novi": 4373,
      "rising ": 4374,
      "ghting ": 4375,
      "acked ": 4376,
      "urrah": 4377,
      "you’re ": 4378,
      "I know ": 4379,
      "it of ": 4380,
      "for you": 4381,
      "comb": 4382,
      "she felt ": 4383,
      "akchéev": 4384,
      "the co": 4385,
      "rubb": 4386,
      "only the ": 4387,
      "if he ": 4388,
      "we have ": 4389,
      "left\r\n": 4390,
      "story ": 4391,
      "here is ": 4392,
      "know\r\n": 4393,
      "ordered ": 4394,
      "dress ": 4395,
      "stern ": 4396,
      "commander": 4397,
      "broke ": 4398,
      "Prince Andrew\r\n": 4399,
      "merry ": 4400,
      "young man ": 4401,
      "laughter": 4402,
      "let him ": 4403,
      "might be ": 4404,
      "sleev": 4405,
      "...” said ": 4406,
      "door.\r\n": 4407,
      "personal ": 4408,
      "Alexéev": 4409,
      "drawing room": 4410,
      "“Do you ": 4411,
      "forces ": 4412,
      ". Though ": 4413,
      "discus": 4414,
      "full of ": 4415,
      "rose and ": 4416,
      "admir": 4417,
      "disappe": 4418,
      "beginn": 4419,
      "experienced ": 4420,
      "hurriedly ": 4421,
      "tranqu": 4422,
      "conclud": 4423,
      "scarcely ": 4424,
      "quite\r\n": 4425,
      "Con": 4426,
      "Er": 4427,
      "Father": 4428,
      "Ital": 4429,
      "Lav": 4430,
      "Tar": 4431,
      "bir": 4432,
      "card": 4433,
      "case ": 4434,
      "e-": 4435,
      "gat": 4436,
      "gain ": 4437,
      "i ": 4438,
      "ma ": 4439,
      "n, ": 4440,
      "s. “": 4441,
      "”—": 4442,
      "e a ": 4443,
      "in’s ": 4444,
      "infin": 4445,
      "independ": 4446,
      ". (": 4447,
      ". From ": 4448,
      "stand ": 4449,
      "he had\r\n": 4450,
      "sev": 4451,
      "was now ": 4452,
      "had already ": 4453,
      "ic\r\n": 4454,
      "or to ": 4455,
      "or of ": 4456,
      "Anna\r\n": 4457,
      "termin": 4458,
      "opport": 4459,
      "ed to his ": 4460,
      "fee": 4461,
      "today": 4462,
      "me and ": 4463,
      "!” and ": 4464,
      "es, the ": 4465,
      "lod": 4466,
      "proach ": 4467,
      "ets ": 4468,
      "ance\r\n": 4469,
      "reading ": 4470,
      "prou": 4471,
      "anyone": 4472,
      "priv": 4473,
      "time\r\n": 4474,
      "ddenly ": 4475,
      "march": 4476,
      "early ": 4477,
      "historical ": 4478,
      "heard the ": 4479,
      "says ": 4480,
      "away from ": 4481,
      "!” said the ": 4482,
      ". Besid": 4483,
      "looked\r\n": 4484,
      "noticed that ": 4485,
      "different": 4486,
      "Kutúzov, ": 4487,
      "suppos": 4488,
      "directed ": 4489,
      "tears ": 4490,
      "near the ": 4491,
      "business": 4492,
      "regimental ": 4493,
      "wife’s ": 4494,
      "the chief ": 4495,
      "Tíkhon ": 4496,
      "Véra": 4497,
      "instead of ": 4498,
      "sign ": 4499,
      "figure": 4500,
      "hesit": 4501,
      "opportun": 4502,
      "!..": 4503,
      "Li": 4504,
      "Mon": 4505,
      "The": 4506,
      "ay ": 4507,
      "bound ": 4508,
      "done": 4509,
      "hy": 4510,
      "ho ": 4511,
      "ka, ": 4512,
      "ose": 4513,
      "pan": 4514,
      "pity ": 4515,
      "ted\r\n": 4516,
      "temp": 4517,
      "wrink": 4518,
      "yard": 4519,
      "in.\r\n": 4520,
      "instruction": 4521,
      "ed as ": 4522,
      "ared ": 4523,
      "station": 4524,
      "it.”\r\n": 4525,
      "old, ": 4526,
      "div": 4527,
      "dism": 4528,
      "ed:\r\n": 4529,
      "with which ": 4530,
      "shru": 4531,
      "you’ll ": 4532,
      "conc": 4533,
      "dead ": 4534,
      "delight": 4535,
      "embarr": 4536,
      "immen": 4537,
      "render": 4538,
      "well, ": 4539,
      "doz": 4540,
      "first\r\n": 4541,
      "grand": 4542,
      "horses": 4543,
      "much": 4544,
      "porch": 4545,
      "pock": 4546,
      "out.\r\n": 4547,
      "into the\r\n": 4548,
      ",” he said ": 4549,
      "God, ": 4550,
      "“Your ": 4551,
      "hundre": 4552,
      "write ": 4553,
      "raptur": 4554,
      "glancing ": 4555,
      "truth": 4556,
      "here’s ": 4557,
      "sent to ": 4558,
      ". They were ": 4559,
      "suppor": 4560,
      "devil": 4561,
      "country ": 4562,
      "pursu": 4563,
      "lady ": 4564,
      "lower": 4565,
      "addressed ": 4566,
      "Dólokhov’s ": 4567,
      "historian": 4568,
      "pretty ": 4569,
      "twenty ": 4570,
      "doubt ": 4571,
      "young\r\n": 4572,
      "in front of ": 4573,
      "definite ": 4574,
      "itude ": 4575,
      "victory ": 4576,
      "Smolénsk": 4577,
      "“Now ": 4578,
      "flew ": 4579,
      "just\r\n": 4580,
      "Michael ": 4581,
      "sieur ": 4582,
      "enthusi": 4583,
      "threaten": 4584,
      "embarras": 4585,
      "Fre": 4586,
      "Zher": 4587,
      "gust ": 4588,
      "mon ": 4589,
      "rying ": 4590,
      "rúsh": 4591,
      "went\r\n": 4592,
      "the Emperor": 4593,
      "o one ": 4594,
      "hill": 4595,
      "reception ": 4596,
      "hall ": 4597,
      "has\r\n": 4598,
      "at the c": 4599,
      "atic ": 4600,
      "ow, ": 4601,
      "in to ": 4602,
      "nother ": 4603,
      "with you": 4604,
      "shri": 4605,
      "had been\r\n": 4606,
      "ure of ": 4607,
      "de\r\n": 4608,
      "el, ": 4609,
      "ext": 4610,
      "superi": 4611,
      "but the ": 4612,
      "you will ": 4613,
      "last": 4614,
      "spi": 4615,
      "factor": 4616,
      "s of her ": 4617,
      "thought\r\n": 4618,
      "only a ": 4619,
      "firm ": 4620,
      ". Su": 4621,
      ". She\r\n": 4622,
      "ground": 4623,
      "serge": 4624,
      "serious ": 4625,
      "commun": 4626,
      "please": 4627,
      "hands, ": 4628,
      "everybod": 4629,
      "left": 4630,
      "Prince Andrew was ": 4631,
      "men\r\n": 4632,
      "ski’s ": 4633,
      "go and ": 4634,
      "“That ": 4635,
      "words, ": 4636,
      "cap ": 4637,
      "ure, ": 4638,
      "under his ": 4639,
      "though he ": 4640,
      "company": 4641,
      "mission ": 4642,
      "tively ": 4643,
      "pub": 4644,
      "started ": 4645,
      "going on ": 4646,
      "animat": 4647,
      "easily ": 4648,
      "walk": 4649,
      "borzo": 4650,
      "mother’s ": 4651,
      "agree": 4652,
      "fallen ": 4653,
      "Arakchéev": 4654,
      "minutes ": 4655,
      "after\r\n": 4656,
      "didn’t ": 4657,
      "conclu": 4658,
      "sacrifice ": 4659,
      "stepped ": 4660,
      "battalion": 4661,
      "the count, ": 4662,
      "middle of the ": 4663,
      "comprehensible ": 4664,
      "most\r\n": 4665,
      "million": 4666,
      "Zherkóv": 4667,
      "Kuz": 4668,
      "Mason": 4669,
      "Pap": 4670,
      "Very ": 4671,
      "While ": 4672,
      "bal": 4673,
      "by, ": 4674,
      "blo": 4675,
      "cand": 4676,
      "cous": 4677,
      "d, and ": 4678,
      "hood ": 4679,
      "lab": 4680,
      "ry, ": 4681,
      "ution": 4682,
      "and not ": 4683,
      "red\r\n": 4684,
      "to which ": 4685,
      "ing in the ": 4686,
      "hab": 4687,
      "hasti": 4688,
      "he has ": 4689,
      "chos": 4690,
      "seen": 4691,
      "sear": 4692,
      "bear ": 4693,
      "rio": 4694,
      "sick ": 4695,
      "ently\r\n": 4696,
      "ce of ": 4697,
      "absent": 4698,
      "elder": 4699,
      "exha": 4700,
      "extra": 4701,
      "all the\r\n": 4702,
      "you know ": 4703,
      "seless ": 4704,
      "miles ": 4705,
      "Prince": 4706,
      ". “A": 4707,
      "what she ": 4708,
      "did he ": 4709,
      "man.\r\n": 4710,
      "everal ": 4711,
      "Natásha\r\n": 4712,
      ". Sóny": 4713,
      "there are ": 4714,
      "ly,\r\n": 4715,
      "ed and the ": 4716,
      "paid ": 4717,
      "green ": 4718,
      "after his ": 4719,
      "such as ": 4720,
      "better": 4721,
      ". On": 4722,
      "captur": 4723,
      "march ": 4724,
      "say that ": 4725,
      "subm": 4726,
      "rapid ": 4727,
      "misfortun": 4728,
      "friendshi": 4729,
      "CHAPTER XV": 4730,
      "?” he asked ": 4731,
      "steps ": 4732,
      "direct ": 4733,
      "Princess Mary": 4734,
      "raised his ": 4735,
      "remembered ": 4736,
      "heavy ": 4737,
      "freedom": 4738,
      "further ": 4739,
      "sense of ": 4740,
      "splendid ": 4741,
      "little\r\n": 4742,
      "carrying ": 4743,
      "enormous ": 4744,
      "shrugg": 4745,
      "-mind": 4746,
      "1.": 4747,
      "Du": 4748,
      "Dur": 4749,
      "Every": 4750,
      "IV\r\n": 4751,
      "Next ": 4752,
      "adi": 4753,
      "ds of ": 4754,
      "ian ": 4755,
      "les, ": 4756,
      "main": 4757,
      "ror": 4758,
      ", with ": 4759,
      "ene ": 4760,
      "end of ": 4761,
      "ons ": 4762,
      "ed by\r\n": 4763,
      "arg": 4764,
      "ing from ": 4765,
      "alú": 4766,
      "being\r\n": 4767,
      "sake": 4768,
      "ris": 4769,
      "ride ": 4770,
      "delic": 4771,
      "abs": 4772,
      "for an ": 4773,
      "for him ": 4774,
      "for me": 4775,
      "ap ": 4776,
      "appoint": 4777,
      "comfor": 4778,
      "come\r\n": 4779,
      "him with ": 4780,
      "fet": 4781,
      "meas": 4782,
      "mean ": 4783,
      "who had been ": 4784,
      ". “He ": 4785,
      ". Having ": 4786,
      "trying ": 4787,
      "spar": 4788,
      "issu": 4789,
      "pressing ": 4790,
      "teen": 4791,
      "would have been ": 4792,
      "? You ": 4793,
      "load": 4794,
      "e and the ": 4795,
      ", but the ": 4796,
      "ctly ": 4797,
      "went on, ": 4798,
      "pau": 4799,
      "pay ": 4800,
      "clam": 4801,
      "like that": 4802,
      "ble, ": 4803,
      "obvi": 4804,
      "ness of ": 4805,
      "ception": 4806,
      "distance ": 4807,
      "away and ": 4808,
      "regiment, ": 4809,
      "receive ": 4810,
      "stop ": 4811,
      "sort of ": 4812,
      "may be ": 4813,
      "water ": 4814,
      "questions ": 4815,
      "valu": 4816,
      "purpos": 4817,
      "said: ": 4818,
      "presented ": 4819,
      "Dólokhov, ": 4820,
      "bridg": 4821,
      "difficult ": 4822,
      "Though ": 4823,
      "ential ": 4824,
      "resolut": 4825,
      "mouth ": 4826,
      "Bonaparte ": 4827,
      "musk": 4828,
      "usually ": 4829,
      "sacrific": 4830,
      "angrily ": 4831,
      "opposite ": 4832,
      "transfer": 4833,
      "whatever ": 4834,
      "for the first time ": 4835,
      "possibility of ": 4836,
      "disposition": 4837,
      "number of ": 4838,
      "apparently ": 4839,
      "Lavrúsh": 4840,
      "Kuzmí": 4841,
      "Let ": 4842,
      "Par": 4843,
      "cking ": 4844,
      "cry ": 4845,
      "ew": 4846,
      "eat": 4847,
      "la ": 4848,
      "ming": 4849,
      "mun": 4850,
      "od": 4851,
      "use\r\n": 4852,
      "vent ": 4853,
      "wood ": 4854,
      "s or ": 4855,
      "ers and ": 4856,
      "ed his\r\n": 4857,
      "ing. The ": 4858,
      "and of ": 4859,
      "to him, ": 4860,
      "to give ": 4861,
      "ing to\r\n": 4862,
      "a letter ": 4863,
      "in love ": 4864,
      "se, and ": 4865,
      "see\r\n": 4866,
      "leas": 4867,
      "beam": 4868,
      "forward": 4869,
      "actic": 4870,
      "dim": 4871,
      "ed; ": 4872,
      "shin": 4873,
      "had no ": 4874,
      "unit": 4875,
      "even\r\n": 4876,
      "it is": 4877,
      "consequ": 4878,
      "absol": 4879,
      "such\r\n": 4880,
      "ed to him ": 4881,
      "wait ": 4882,
      ". “The ": 4883,
      "so that ": 4884,
      "the car": 4885,
      "we’ll ": 4886,
      "post ": 4887,
      "visible ": 4888,
      "cip": 4889,
      "eyes\r\n": 4890,
      "proc": 4891,
      "prote": 4892,
      "box ": 4893,
      "blu": 4894,
      "pause": 4895,
      "own, ": 4896,
      "looked at the ": 4897,
      "looked round ": 4898,
      "know that ": 4899,
      "clean": 4900,
      "trium": 4901,
      "guid": 4902,
      "“Th": 4903,
      "continued, ": 4904,
      ". It is ": 4905,
      "“All ": 4906,
      "“Yes": 4907,
      "vicom": 4908,
      "receiving ": 4909,
      "naï": 4910,
      "generals ": 4911,
      "ment of ": 4912,
      "people, ": 4913,
      "“You are ": 4914,
      "appeared ": 4915,
      "direction ": 4916,
      "conversation": 4917,
      "part of the ": 4918,
      "telling ": 4919,
      "instant ": 4920,
      "hussars ": 4921,
      "significant ": 4922,
      "pale ": 4923,
      "government ": 4924,
      "firmly ": 4925,
      "Mademoiselle Bourienne": 4926,
      "Mademoiselle Bourienne ": 4927,
      "reply": 4928,
      "campaign ": 4929,
      "ladies ": 4930,
      "mustach": 4931,
      "sharp": 4932,
      "twice ": 4933,
      "satisfaction ": 4934,
      "unexpectedly ": 4935,
      "colonel ": 4936,
      "major": 4937,
      "essall": 4938,
      "establish": 4939,
      "hastily ": 4940,
      "argum": 4941,
      "?... ": 4942,
      "ather ": 4943,
      "cou": 4944,
      "ee": 4945,
      "gam": 4946,
      "hound": 4947,
      "nic": 4948,
      "phe": 4949,
      "s. But ": 4950,
      "ually ": 4951,
      "y.”\r\n": 4952,
      "ze ": 4953,
      "’d ": 4954,
      "“and ": 4955,
      "th, and ": 4956,
      "inde": 4957,
      "ous of ": 4958,
      "ed with\r\n": 4959,
      ". Nicholas ": 4960,
      "at last ": 4961,
      "as much ": 4962,
      "itting ": 4963,
      "wil": 4964,
      "assist": 4965,
      "river": 4966,
      "ridic": 4967,
      "active ": 4968,
      "him. The ": 4969,
      "dish ": 4970,
      "whom\r\n": 4971,
      "is it": 4972,
      "consol": 4973,
      "confirm": 4974,
      "ago ": 4975,
      "for that ": 4976,
      "appointed ": 4977,
      "you and ": 4978,
      "you know": 4979,
      "perform": 4980,
      "here\r\n": 4981,
      "worn ": 4982,
      "did you ": 4983,
      "Pierre and ": 4984,
      "rubl": 4985,
      "only one ": 4986,
      "fair": 4987,
      "prof": 4988,
      "first": 4989,
      "“Well": 4990,
      "maid ": 4991,
      "came out ": 4992,
      "path ": 4993,
      "over\r\n": 4994,
      "we must ": 4995,
      "way of ": 4996,
      "place": 4997,
      "can be ": 4998,
      "because he ": 4999,
      "told her ": 5000,
      "back to ": 5001,
      "able, ": 5002,
      "fully, ": 5003,
      "laughter ": 5004,
      "Peter ": 5005,
      "another, ": 5006,
      "...” he ": 5007,
      "down, ": 5008,
      "following ": 5009,
      "foot ": 5010,
      "carriage ": 5011,
      "the best ": 5012,
      "meaning ": 5013,
      "Princess Mary’s ": 5014,
      "legs ": 5015,
      "time.\r\n": 5016,
      "chiefly ": 5017,
      "how\r\n": 5018,
      "immediat": 5019,
      "admit ": 5020,
      "peace ": 5021,
      "companion": 5022,
      "occurred to ": 5023,
      "complete": 5024,
      ". As soon ": 5025,
      "tomorrow ": 5026,
      "Perhaps ": 5027,
      "Bennigsen ": 5028,
      "Julie ": 5029,
      "according to ": 5030,
      "antero": 5031,
      "Monsieur ": 5032,
      "(2": 5033,
      ".’ ": 5034,
      "IX": 5035,
      "Min": 5036,
      "Mak": 5037,
      "aun": 5038,
      "bab": 5039,
      "hous": 5040,
      "id\r\n": 5041,
      "l’": 5042,
      "ling": 5043,
      "les": 5044,
      "lóv": 5045,
      "mounted ": 5046,
      "tall ": 5047,
      "yard ": 5048,
      "throw": 5049,
      "ed with the ": 5050,
      "and so ": 5051,
      "ret": 5052,
      "rein": 5053,
      "relat": 5054,
      "to you": 5055,
      "to make ": 5056,
      "of it": 5057,
      "at any ": 5058,
      "esn’t ": 5059,
      "in his\r\n": 5060,
      "in Petersburg": 5061,
      "lease ": 5062,
      "al.\r\n": 5063,
      "alter": 5064,
      "beg ": 5065,
      "that a ": 5066,
      "that he had ": 5067,
      "that if ": 5068,
      "forest ": 5069,
      "sad ": 5070,
      "same\r\n": 5071,
      "ghted ": 5072,
      "him. ": 5073,
      "ed. He ": 5074,
      "liber": 5075,
      "like": 5076,
      "with that ": 5077,
      "ung ": 5078,
      "ade ": 5079,
      "determin": 5080,
      "abil": 5081,
      "absor": 5082,
      "ement, ": 5083,
      "extern": 5084,
      "or of the ": 5085,
      "seless": 5086,
      "perple": 5087,
      "were not ": 5088,
      "her. She ": 5089,
      "what they ": 5090,
      "ist ": 5091,
      "their own ": 5092,
      "angu": 5093,
      "ruble": 5094,
      "so, ": 5095,
      "on the sof": 5096,
      ". Some ": 5097,
      ",” said he ": 5098,
      "skir": 5099,
      "black": 5100,
      "nich": 5101,
      "um ": 5102,
      "seemed\r\n": 5103,
      "twit": 5104,
      "coach": 5105,
      "we shall ": 5106,
      "pass ": 5107,
      "ty-": 5108,
      "life and ": 5109,
      "drago": 5110,
      "guil": 5111,
      "always\r\n": 5112,
      "bright": 5113,
      "corp": 5114,
      "look of ": 5115,
      "expect ": 5116,
      "“Oh ": 5117,
      "laughing ": 5118,
      "tell me ": 5119,
      "na.\r\n": 5120,
      "enemy": 5121,
      "might have ": 5122,
      "cloak": 5123,
      "true": 5124,
      "relation ": 5125,
      "It is ": 5126,
      "aston": 5127,
      "Madame ": 5128,
      "crossed ": 5129,
      "“Don’t ": 5130,
      "understanding ": 5131,
      "road, ": 5132,
      "joyful ": 5133,
      "killed ": 5134,
      "she’s ": 5135,
      "significance ": 5136,
      "disapp": 5137,
      "Berg": 5138,
      "Bonaparte": 5139,
      "previous ": 5140,
      "the crowd ": 5141,
      "Ivánovi": 5142,
      "artiller": 5143,
      "horses, ": 5144,
      "at once": 5145,
      "Austerlitz": 5146,
      "fashi": 5147,
      "?..": 5148,
      "Go ": 5149,
      "Tur": 5150,
      "bil": 5151,
      "cry": 5152,
      "drin": 5153,
      "ge of ": 5154,
      "hl": 5155,
      "hut ": 5156,
      "nít": 5157,
      "pin": 5158,
      "s,” ": 5159,
      "“the ": 5160,
      "ones": 5161,
      "rejo": 5162,
      "ing it ": 5163,
      "a new ": 5164,
      "chor": 5165,
      "in its ": 5166,
      "that is, ": 5167,
      ", and his ": 5168,
      "liar": 5169,
      "had come ": 5170,
      "unyá": 5171,
      "not the ": 5172,
      "ch and ": 5173,
      "es that ": 5174,
      "deb": 5175,
      "depri": 5176,
      "ically ": 5177,
      "ember": 5178,
      "e, the ": 5179,
      "she did not ": 5180,
      "what he was ": 5181,
      "spur": 5182,
      "poss": 5183,
      "attain": 5184,
      "viol": 5185,
      "soon": 5186,
      "Rostóvs ": 5187,
      "something\r\n": 5188,
      ". At the ": 5189,
      "will of ": 5190,
      "about it": 5191,
      "seems ": 5192,
      "gree": 5193,
      "Princess ": 5194,
      "flam": 5195,
      "must\r\n": 5196,
      "left, ": 5197,
      "guard": 5198,
      ". But the ": 5199,
      "intro": 5200,
      "headquarter": 5201,
      "merri": 5202,
      "portra": 5203,
      "distin": 5204,
      "hung ": 5205,
      "while the ": 5206,
      "let me ": 5207,
      "smile, ": 5208,
      "higher ": 5209,
      "right and ": 5210,
      "dark": 5211,
      "asked\r\n": 5212,
      "simpl": 5213,
      "apart ": 5214,
      "had not yet ": 5215,
      "walking ": 5216,
      "I’ve ": 5217,
      "respect ": 5218,
      "was, ": 5219,
      "loud ": 5220,
      "governor": 5221,
      "finished ": 5222,
      "at that moment ": 5223,
      "character ": 5224,
      "success": 5225,
      "Bennigsen": 5226,
      "sincer": 5227,
      "Project Gutenberg-tm ": 5228,
      "Freem": 5229,
      "triumph": 5230,
      "perplex": 5231,
      "unyásha": 5232,
      " Alexéev": 5233,
      "!’ ": 5234,
      "Il": 5235,
      "Mo": 5236,
      "Mil": 5237,
      "Otr": 5238,
      "Qu": 5239,
      "Tim": 5240,
      "Wey": 5241,
      "avi": 5242,
      "bow ": 5243,
      "bold": 5244,
      "ision": 5245,
      "lac": 5246,
      "less\r\n": 5247,
      "mó": 5248,
      "mut": 5249,
      "pack": 5250,
      "vag": 5251,
      "ya ": 5252,
      "thank": 5253,
      "individ": 5254,
      "anti": 5255,
      "ing.”\r\n": 5256,
      "and un": 5257,
      "and her ": 5258,
      "and the\r\n": 5259,
      "re\r\n": 5260,
      "theat": 5261,
      "lead ": 5262,
      "alone, ": 5263,
      "asid": 5264,
      "was sitting ": 5265,
      "save ": 5266,
      "saber": 5267,
      "simil": 5268,
      ", and I ": 5269,
      "an officer ": 5270,
      "had the ": 5271,
      "unconsci": 5272,
      "ador": 5273,
      "ami": 5274,
      "it all ": 5275,
      "dead": 5276,
      "elbow": 5277,
      "for him to ": 5278,
      "s, or ": 5279,
      "exact": 5280,
      "The princess ": 5281,
      "oper": 5282,
      "up.\r\n": 5283,
      "what you ": 5284,
      "!” And ": 5285,
      "ised ": 5286,
      "army\r\n": 5287,
      "fied ": 5288,
      "fighting ": 5289,
      ". That’s ": 5290,
      "? D": 5291,
      "visi": 5292,
      "eyes, and ": 5293,
      "bot": 5294,
      "served ": 5295,
      "Princess\r\n": 5296,
      "horri": 5297,
      ". Well, ": 5298,
      "glor": 5299,
      "joy ": 5300,
      "encoun": 5301,
      "playing ": 5302,
      "orders to ": 5303,
      "should have ": 5304,
      "little princess ": 5305,
      "sens": 5306,
      "merc": 5307,
      "disper": 5308,
      "Emperor, ": 5309,
      "hunts": 5310,
      "count’s ": 5311,
      "wrong ": 5312,
      "nothing to ": 5313,
      "gave him ": 5314,
      "love for ": 5315,
      "subject": 5316,
      "quiver": 5317,
      "looks ": 5318,
      "advance ": 5319,
      "money": 5320,
      "evening, ": 5321,
      "dispat": 5322,
      "suffici": 5323,
      "greatest ": 5324,
      "start": 5325,
      "tail ": 5326,
      "summ": 5327,
      "contrary, ": 5328,
      "events ": 5329,
      "movement of the ": 5330,
      "recognize ": 5331,
      "there was no ": 5332,
      "approaching ": 5333,
      "however, ": 5334,
      "particular ": 5335,
      "hope ": 5336,
      "doubt": 5337,
      "home": 5338,
      "nearer ": 5339,
      "morning, ": 5340,
      "limit": 5341,
      "princess’ ": 5342,
      "serious": 5343,
      "advanced ": 5344,
      "patrio": 5345,
      "prince’s ": 5346,
      "affection": 5347,
      "indicat": 5348,
      "arrival ": 5349,
      "connection ": 5350,
      "intention": 5351,
      "Speránski ": 5352,
      "stretch": 5353,
      "ithout ": 5354,
      "supper": 5355,
      "ádno": 5356,
      "forgotten ": 5357,
      "immense ": 5358,
      "spiri": 5359,
      "Otrádno": 5360,
      "mólov": 5361,
      "Coun": 5362,
      "Ko": 5363,
      "Víl": 5364,
      "bagg": 5365,
      "care ": 5366,
      "dare ": 5367,
      "eight ": 5368,
      "fate ": 5369,
      "ive ": 5370,
      "phi": 5371,
      "tone of ": 5372,
      "wo": 5373,
      "útin": 5374,
      "thou": 5375,
      "ered ": 5376,
      "the enemy ": 5377,
      "hide ": 5378,
      "to her": 5379,
      ". Not ": 5380,
      "of those ": 5381,
      "stu": 5382,
      "he was\r\n": 5383,
      "he knew ": 5384,
      "choo": 5385,
      "led\r\n": 5386,
      "on one ": 5387,
      "als ": 5388,
      "was already ": 5389,
      "fores": 5390,
      "forgive ": 5391,
      "olo": 5392,
      "emë": 5393,
      "out the ": 5394,
      "all right": 5395,
      "neck ": 5396,
      "ake ": 5397,
      "means ": 5398,
      ". “O": 5399,
      ". “If ": 5400,
      "the colon": 5401,
      "tea ": 5402,
      "es, but ": 5403,
      "attach": 5404,
      "attemp": 5405,
      "vili": 5406,
      "visit ": 5407,
      "love and ": 5408,
      "love of ": 5409,
      "firing ": 5410,
      ". It’s ": 5411,
      "ant.\r\n": 5412,
      "“What": 5413,
      ". Some": 5414,
      "others": 5415,
      "ity of the ": 5416,
      "goti": 5417,
      "your honor": 5418,
      "men who ": 5419,
      "outside ": 5420,
      "son, ": 5421,
      "son’s ": 5422,
      "play ": 5423,
      "frequ": 5424,
      "duce ": 5425,
      "because\r\n": 5426,
      "“There ": 5427,
      "words": 5428,
      "long been ": 5429,
      "incid": 5430,
      "obtain": 5431,
      "suddenly\r\n": 5432,
      "mental ": 5433,
      "happened": 5434,
      "appear ": 5435,
      "prove ": 5436,
      "Pétya, ": 5437,
      "sleep ": 5438,
      "hot ": 5439,
      "general\r\n": 5440,
      "crowd of ": 5441,
      "should\r\n": 5442,
      "simple": 5443,
      "?” he asked.\r\n": 5444,
      "count, ": 5445,
      "ness, and ": 5446,
      ",” she said ": 5447,
      "side of ": 5448,
      "easy ": 5449,
      "boot": 5450,
      "“So ": 5451,
      "kind of ": 5452,
      "bridge": 5453,
      "agree ": 5454,
      "result": 5455,
      "table, ": 5456,
      "midst ": 5457,
      "definit": 5458,
      "paper ": 5459,
      "itude": 5460,
      "fingers ": 5461,
      "agitated ": 5462,
      "service": 5463,
      "success ": 5464,
      "Márya Dmítrievna ": 5465,
      "Kurágin": 5466,
      "Kurágin ": 5467,
      "wolf ": 5468,
      "stupid": 5469,
      "stupid ": 5470,
      "descend": 5471,
      "artillery ": 5472,
      "division ": 5473,
      "division": 5474,
      "big ": 5475,
      "fond of ": 5476,
      "solemn ": 5477,
      "master ": 5478,
      "oblig": 5479,
      "eyebrow": 5480,
      "Tarútin": 5481,
      "concentr": 5482,
      "absent-mind": 5483,
      "IX\r\n": 5484,
      "similar ": 5485,
      "*\r\n": 5486,
      "Dessall": 5487,
      "Semë": 5488,
      "Thy ": 5489,
      "Uhl": 5490,
      "cle ": 5491,
      "ce, ": 5492,
      "cto": 5493,
      "eigh": 5494,
      "fat": 5495,
      "pati": 5496,
      "t,\r\n": 5497,
      "tted ": 5498,
      "ves": 5499,
      "vous ": 5500,
      "woul": 5501,
      "yaz": 5502,
      "ák": 5503,
      "“You": 5504,
      "than\r\n": 5505,
      "inqui": 5506,
      "innumer": 5507,
      "ane": 5508,
      "the most ": 5509,
      "the general ": 5510,
      "eness ": 5511,
      "ense ": 5512,
      "to find ": 5513,
      "of what ": 5514,
      "stain": 5515,
      "he went ": 5516,
      "a very ": 5517,
      "as if\r\n": 5518,
      "es. The ": 5519,
      "esaul": 5520,
      "in spite of ": 5521,
      "on and ": 5522,
      "on my ": 5523,
      "along": 5524,
      "that the\r\n": 5525,
      "assem": 5526,
      "was very ": 5527,
      "sake ": 5528,
      "ridden ": 5529,
      "lie ": 5530,
      "with him": 5531,
      "had he ": 5532,
      "had gone ": 5533,
      "is very ": 5534,
      "he.\r\n": 5535,
      "using ": 5536,
      "it were ": 5537,
      "s, which ": 5538,
      "explain ": 5539,
      ",” he\r\n": 5540,
      "ed to the\r\n": 5541,
      "qual": 5542,
      "there.\r\n": 5543,
      "shaking ": 5544,
      "the cour": 5545,
      "! How ": 5546,
      "word, ": 5547,
      "word of ": 5548,
      "estate ": 5549,
      "doesn’t ": 5550,
      "though\r\n": 5551,
      "? I": 5552,
      ". In": 5553,
      "ities ": 5554,
      "sky ": 5555,
      "grate": 5556,
      "blame ": 5557,
      "ity to ": 5558,
      "seems to ": 5559,
      "happen ": 5560,
      "everything, ": 5561,
      "contra": 5562,
      "know what ": 5563,
      "He was ": 5564,
      "joyou": 5565,
      "again.\r\n": 5566,
      "“Then ": 5567,
      "could not be ": 5568,
      "incess": 5569,
      "as if to ": 5570,
      "earth": 5571,
      "hearing ": 5572,
      "au ": 5573,
      "head\r\n": 5574,
      "draw ": 5575,
      "“Ah": 5576,
      "entering the ": 5577,
      "that he would ": 5578,
      "replied that ": 5579,
      "subject ": 5580,
      "huge ": 5581,
      "right to ": 5582,
      "listening to ": 5583,
      "Vasíli ": 5584,
      "hoar": 5585,
      "the countess, ": 5586,
      "Nicholas.\r\n": 5587,
      "carts ": 5588,
      "disput": 5589,
      "recoll": 5590,
      ". When he ": 5591,
      "lower ": 5592,
      "guns ": 5593,
      "cannot be ": 5594,
      "members ": 5595,
      "kindly ": 5596,
      "several times ": 5597,
      "pale and ": 5598,
      "August ": 5599,
      "Alpátych": 5600,
      "elyán": 5601,
      "desire to ": 5602,
      "duty ": 5603,
      "wearing a ": 5604,
      "previously ": 5605,
      "as soon as ": 5606,
      "-in-law": 5607,
      "Karatáev ": 5608,
      "contemptu": 5609,
      "dressing g": 5610,
      "figure ": 5611,
      "squadron ": 5612,
      "Hippolyte ": 5613,
      "friend, ": 5614,
      "despair": 5615,
      "exhaust": 5616,
      "completely ": 5617,
      "(2) ": 5618,
      "Semënov": 5619,
      "Dron ": 5620,
      "Octo": 5621,
      "cent": 5622,
      "dom ": 5623,
      "ei": 5624,
      "fare ": 5625,
      "fever": 5626,
      "ke\r\n": 5627,
      "ml": 5628,
      "narr": 5629,
      "round, ": 5630,
      "sing\r\n": 5631,
      "song": 5632,
      "s!”\r\n": 5633,
      "warm ": 5634,
      "ókh": 5635,
      "’\r\n": 5636,
      "ind ": 5637,
      "intri": 5638,
      "ering ": 5639,
      "ard\r\n": 5640,
      "arous": 5641,
      "of his\r\n": 5642,
      "at and ": 5643,
      "omen": 5644,
      "es. ": 5645,
      "chest ": 5646,
      "itor": 5647,
      "theor": 5648,
      "alarm": 5649,
      "that all ": 5650,
      "that you ": 5651,
      "was heard ": 5652,
      "accomp": 5653,
      "dir": 5654,
      "diver": 5655,
      "shoo": 5656,
      "unpleasant ": 5657,
      "entrust": 5658,
      "amaz": 5659,
      "convo": 5660,
      "depar": 5661,
      "or a ": 5662,
      "suite ": 5663,
      "alli": 5664,
      "out and ": 5665,
      "que": 5666,
      "aked ": 5667,
      "last\r\n": 5668,
      "have done ": 5669,
      "this was ": 5670,
      "ted the ": 5671,
      "fact": 5672,
      "!” exclaimed ": 5673,
      "worth": 5674,
      "re you ": 5675,
      "weak ": 5676,
      "manner": 5677,
      "t, but ": 5678,
      "posses": 5679,
      "rubet": 5680,
      "civili": 5681,
      "cast": 5682,
      "ed, the ": 5683,
      "when I ": 5684,
      "bott": 5685,
      "“Where ": 5686,
      "somewhere ": 5687,
      "skó": 5688,
      "serving ": 5689,
      "Russia, ": 5690,
      "flatter": 5691,
      "men were ": 5692,
      "ed by his ": 5693,
      "generally ": 5694,
      "desper": 5695,
      "duti": 5696,
      "hind ": 5697,
      "aven": 5698,
      "captain": 5699,
      "ge of the ": 5700,
      "heard\r\n": 5701,
      "long-": 5702,
      "latter": 5703,
      "say: ": 5704,
      "looking at the ": 5705,
      "Emperor\r\n": 5706,
      "seemed to be ": 5707,
      "nothing but ": 5708,
      "off his ": 5709,
      "struction ": 5710,
      "“Hurrah": 5711,
      "looking\r\n": 5712,
      "ward, ": 5713,
      "evening": 5714,
      "Denísov.\r\n": 5715,
      "people\r\n": 5716,
      "point of ": 5717,
      "country": 5718,
      "crossing ": 5719,
      "life.\r\n": 5720,
      "polic": 5721,
      "surprise ": 5722,
      "difficulty ": 5723,
      "marriage ": 5724,
      "whispered ": 5725,
      "circle": 5726,
      "heaven": 5727,
      "gentlemen": 5728,
      "shot ": 5729,
      "above the ": 5730,
      "impati": 5731,
      "inevitability ": 5732,
      "muttered ": 5733,
      "Polish ": 5734,
      "cheerful ": 5735,
      "wolf": 5736,
      "responsi": 5737,
      "genius": 5738,
      "charming ": 5739,
      "jumped ": 5740,
      "distribut": 5741,
      "at the same time ": 5742,
      "sovereign": 5743,
      "detachment": 5744,
      "awkward": 5745,
      "commission": 5746,
      ",” replied the ": 5747,
      "sergeant ": 5748,
      "Freemason": 5749,
      "recollec": 5750,
      "Dunyásha": 5751,
      "Tsar ": 5752,
      "Yet ": 5753,
      "ath": 5754,
      "ctr": 5755,
      "dest ": 5756,
      "eor": 5757,
      "fanc": 5758,
      "gres": 5759,
      "hol": 5760,
      "mood ": 5761,
      "pop": 5762,
      "tú": 5763,
      "uct": 5764,
      "ás": 5765,
      "év": 5766,
      "ílov": 5767,
      "e for ": 5768,
      "s as ": 5769,
      "er, and ": 5770,
      ", she ": 5771,
      "the prince ": 5772,
      "enough": 5773,
      "enough ": 5774,
      "ed an ": 5775,
      "ed that the ": 5776,
      "refr": 5777,
      "red, ": 5778,
      "restra": 5779,
      "resem": 5780,
      "to me ": 5781,
      "ing them ": 5782,
      "of them": 5783,
      "of these ": 5784,
      "stir": 5785,
      "stoo": 5786,
      "ator": 5787,
      "as an ": 5788,
      "as though ": 5789,
      "as well ": 5790,
      "chec": 5791,
      "in Petersburg ": 5792,
      "lev": 5793,
      "le.\r\n": 5794,
      "his wife ": 5795,
      "assu": 5796,
      "shone ": 5797,
      "evár": 5798,
      "hey": 5799,
      "it had ": 5800,
      "it be ": 5801,
      "it was\r\n": 5802,
      "it seemed to ": 5803,
      "her own ": 5804,
      "conqu": 5805,
      "consul": 5806,
      "depart": 5807,
      "emplo": 5808,
      "or the ": 5809,
      "suc": 5810,
      "mid ": 5811,
      "perish": 5812,
      "which she ": 5813,
      "so many ": 5814,
      "! S": 5815,
      "! The ": 5816,
      "! It’s ": 5817,
      "manner ": 5818,
      "dog ": 5819,
      "day.\r\n": 5820,
      "vivid": 5821,
      "log": 5822,
      "sobb": 5823,
      "faul": 5824,
      "if I ": 5825,
      "grow": 5826,
      "take\r\n": 5827,
      "about his ": 5828,
      "go\r\n": 5829,
      "go, ": 5830,
      "night, ": 5831,
      "plea": 5832,
      "happy": 5833,
      ". Wh": 5834,
      "scr": 5835,
      "lifting ": 5836,
      "see the ": 5837,
      "soldier, ": 5838,
      "ence of the ": 5839,
      "express ": 5840,
      "guard ": 5841,
      "illar": 5842,
      "stern": 5843,
      "hinsh": 5844,
      "something to ": 5845,
      "captain ": 5846,
      "broad ": 5847,
      "objec": 5848,
      "took his ": 5849,
      "because the ": 5850,
      "distur": 5851,
      "button": 5852,
      "spot ": 5853,
      "happened ": 5854,
      "powder": 5855,
      "body": 5856,
      "appeare": 5857,
      "provision": 5858,
      "course": 5859,
      "listened ": 5860,
      "the count’s ": 5861,
      "reluct": 5862,
      "vehi": 5863,
      "runn": 5864,
      "shoulder ": 5865,
      "il of ": 5866,
      "field of ": 5867,
      "besides ": 5868,
      "appearance ": 5869,
      "thirty ": 5870,
      "kissing ": 5871,
      "purpo": 5872,
      "servant ": 5873,
      "Pávlo": 5874,
      "father and ": 5875,
      "gazed ": 5876,
      "driving ": 5877,
      "mother, ": 5878,
      "suffering ": 5879,
      "footman ": 5880,
      "winter ": 5881,
      "particular": 5882,
      "gentlemen ": 5883,
      "“Come ": 5884,
      "These ": 5885,
      ". All the ": 5886,
      "covered ": 5887,
      "deliber": 5888,
      "trembling ": 5889,
      "autum": 5890,
      "electr": 5891,
      "Ilyá ": 5892,
      "blood": 5893,
      "blood ": 5894,
      "ave you ": 5895,
      "church ": 5896,
      "impression ": 5897,
      "Majesty ": 5898,
      "conception of ": 5899,
      "battalion ": 5900,
      "tender ": 5901,
      "Bilíbin ": 5902,
      "cloud": 5903,
      "Shevár": 5904,
      "magn": 5905,
      "the cause of ": 5906,
      "half-": 5907,
      "spiritual ": 5908,
      "circumstanc": 5909,
      "Nik": 5910,
      "Countess Mary ": 5911,
      "punish": 5912,
      "possess": 5913,
      "bottle ": 5914,
      "electron": 5915,
      "Shevárdin": 5916,
      "At that ": 5917,
      "Drubet": 5918,
      "Jose": 5919,
      "Po": 5920,
      "Plat": 5921,
      "Ver": 5922,
      "ath ": 5923,
      "bes": 5924,
      "et\r\n": 5925,
      "etern": 5926,
      "hoo": 5927,
      "hand\r\n": 5928,
      "lun": 5929,
      "lof": 5930,
      "ness\r\n": 5931,
      "pen": 5932,
      "tong": 5933,
      "é ": 5934,
      "’m ": 5935,
      "ings, ": 5936,
      "art ": 5937,
      "hasten": 5938,
      "having\r\n": 5939,
      ". Just ": 5940,
      "of our ": 5941,
      "stout ": 5942,
      "at least ": 5943,
      "a single ": 5944,
      "seated ": 5945,
      "on his\r\n": 5946,
      "becom": 5947,
      "forgi": 5948,
      "forty ": 5949,
      "same": 5950,
      "rich ": 5951,
      "ribut": 5952,
      "die ": 5953,
      "shed ": 5954,
      "ure and ": 5955,
      "is that ": 5956,
      "I am": 5957,
      "it will ": 5958,
      "her eyes ": 5959,
      "decei": 5960,
      "ages ": 5961,
      "age and ": 5962,
      "for your ": 5963,
      "exer": 5964,
      "or not": 5965,
      "The count ": 5966,
      "The countess ": 5967,
      "out a ": 5968,
      "reser": 5969,
      "from that ": 5970,
      "que ": 5971,
      "have to ": 5972,
      "them, and ": 5973,
      "the carri": 5974,
      "! But ": 5975,
      "! He ": 5976,
      "spl": 5977,
      "spac": 5978,
      "weep": 5979,
      "daw": 5980,
      "? C": 5981,
      "attle ": 5982,
      "; he ": 5983,
      "begg": 5984,
      "begun": 5985,
      "when he had ": 5986,
      "progres": 5987,
      ". An ": 5988,
      ",” said he, ": 5989,
      "will of the ": 5990,
      "with a smile ": 5991,
      "majest": 5992,
      "came the ": 5993,
      "two": 5994,
      "do so": 5995,
      "official ": 5996,
      "how the ": 5997,
      ". Why ": 5998,
      "Natásha was ": 5999,
      "... I ": 6000,
      "practic": 6001,
      "small": 6002,
      "....\r\n": 6003,
      "thin, ": 6004,
      "clever ": 6005,
      "guess": 6006,
      "ence\r\n": 6007,
      "left flank ": 6008,
      "face was ": 6009,
      "pleasant": 6010,
      "recover": 6011,
      "French.\r\n": 6012,
      ") and ": 6013,
      "historic ": 6014,
      "cepti": 6015,
      "dissatisfi": 6016,
      "fully\r\n": 6017,
      "ed him to ": 6018,
      "strugg": 6019,
      "ashed ": 6020,
      "troops were ": 6021,
      "lay down ": 6022,
      "devil ": 6023,
      "Princess Mary.\r\n": 6024,
      "univers": 6025,
      "?” asked the ": 6026,
      "opened ": 6027,
      "gazed at ": 6028,
      "laws of ": 6029,
      "aware ": 6030,
      "horse and ": 6031,
      "married ": 6032,
      ". Mor": 6033,
      "side, ": 6034,
      "seized ": 6035,
      "in front ": 6036,
      "government": 6037,
      "Cossacks ": 6038,
      "complete ": 6039,
      ". There was ": 6040,
      "fixed ": 6041,
      "mouth": 6042,
      "muske": 6043,
      "service, ": 6044,
      "sound of ": 6045,
      "connected ": 6046,
      "leaning ": 6047,
      "church": 6048,
      "build": 6049,
      "judg": 6050,
      "gathered ": 6051,
      "Grand ": 6052,
      "the same": 6053,
      "Nesvítski": 6054,
      "“Uncle” ": 6055,
      "intimate ": 6056,
      "melan": 6057,
      "regular ": 6058,
      "Kré": 6059,
      "Vienna ": 6060,
      "peculiar ": 6061,
      "smell ": 6062,
      "Barclay ": 6063,
      "Buonapar": 6064,
      "ourselves ": 6065,
      "Ermólov": 6066,
      "enthusias": 6067,
      "absolut": 6068,
      "Timókh": 6069,
      "), and ": 6070,
      "Brother": 6071,
      "Do": 6072,
      "Kalú": 6073,
      "Shinsh": 6074,
      "Telyán": 6075,
      "a.\r\n": 6076,
      "ben": 6077,
      "bare": 6078,
      "coul": 6079,
      "done, ": 6080,
      "drink": 6081,
      "drum": 6082,
      "eg": 6083,
      "eh": 6084,
      "e—": 6085,
      "eur": 6086,
      "eper": 6087,
      "euten": 6088,
      "fy ": 6089,
      "ggl": 6090,
      "hum": 6091,
      "ier ": 6092,
      "jeal": 6093,
      "lose ": 6094,
      "mal": 6095,
      "ring ": 6096,
      "rov ": 6097,
      "sy ": 6098,
      "s!” ": 6099,
      "vó": 6100,
      "vest": 6101,
      "yp": 6102,
      "yiel": 6103,
      "e of the ": 6104,
      "the Russian ": 6105,
      "and went ": 6106,
      "ing himself ": 6107,
      "hare": 6108,
      "of whom ": 6109,
      "stro": 6110,
      "he heard ": 6111,
      "a great ": 6112,
      "as a\r\n": 6113,
      "chance ": 6114,
      "it—": 6115,
      "bell": 6116,
      "bed, ": 6117,
      "aside": 6118,
      "was it ": 6119,
      "forget": 6120,
      "ribb": 6121,
      "edou": 6122,
      "with all ": 6123,
      "with me": 6124,
      "youth": 6125,
      "is to ": 6126,
      "not be ": 6127,
      "not been ": 6128,
      "it would ": 6129,
      "condu": 6130,
      "congrat": 6131,
      "ent of ": 6132,
      "him in ": 6133,
      "percepti": 6134,
      "feat": 6135,
      "shame": 6136,
      ". “Yes, ": 6137,
      ". “It’s ": 6138,
      "arms and ": 6139,
      "est\r\n": 6140,
      "essential ": 6141,
      "rud": 6142,
      "love, ": 6143,
      "And he ": 6144,
      "remind": 6145,
      ". Several ": 6146,
      "khtú": 6147,
      "came up to ": 6148,
      "over, ": 6149,
      "Empres": 6150,
      "horror ": 6151,
      "able and ": 6152,
      "mudd": 6153,
      "rough ": 6154,
      "orderly ": 6155,
      "placed ": 6156,
      "due ": 6157,
      "because of ": 6158,
      "“This ": 6159,
      "made him ": 6160,
      "evidently\r\n": 6161,
      ") “": 6162,
      "“I’ll ": 6163,
      "people who ": 6164,
      "but, ": 6165,
      "tell you": 6166,
      "let us ": 6167,
      "stead": 6168,
      "court ": 6169,
      "child ": 6170,
      "motion ": 6171,
      "father, ": 6172,
      "general, ": 6173,
      "truth ": 6174,
      "down\r\n": 6175,
      "ideas ": 6176,
      "nature": 6177,
      "“Not ": 6178,
      "calè": 6179,
      "Before ": 6180,
      "street ": 6181,
      "point ": 6182,
      "door, ": 6183,
      "suppose ": 6184,
      "back\r\n": 6185,
      "looked at her ": 6186,
      "household ": 6187,
      "one of them ": 6188,
      "attentively ": 6189,
      ". “We ": 6190,
      "shouted, ": 6191,
      "? Why ": 6192,
      "instinc": 6193,
      "number": 6194,
      "afraid": 6195,
      "result ": 6196,
      "herself\r\n": 6197,
      "Anna Pávlovna’s ": 6198,
      "self-confid": 6199,
      "throw ": 6200,
      "carefully ": 6201,
      "coat, ": 6202,
      "series of ": 6203,
      "Anatole, ": 6204,
      "transpor": 6205,
      "report ": 6206,
      "“Who ": 6207,
      "snuff": 6208,
      "anxious ": 6209,
      "splendid": 6210,
      "Véra ": 6211,
      "confusion ": 6212,
      "religi": 6213,
      "dreadful ": 6214,
      "distinguish": 6215,
      "garden ": 6216,
      "sovereign ": 6217,
      "conceal": 6218,
      "includ": 6219,
      "Murat": 6220,
      "escape ": 6221,
      "physical ": 6222,
      "pistol": 6223,
      "the sound of ": 6224,
      "slipp": 6225,
      "eshch": 6226,
      "public": 6227,
      "chosen ": 6228,
      "ene High": 6229,
      "intrigu": 6230,
      "departure ": 6231,
      "electronic ": 6232,
      "Joseph": 6233,
      "congratul": 6234,
      "Found": 6235,
      "Her ": 6236,
      "Sep": 6237,
      "Two ": 6238,
      "Willar": 6239,
      "aus": 6240,
      "ced": 6241,
      "d,\r\n": 6242,
      "epl": 6243,
      "e’ll ": 6244,
      "fem": 6245,
      "ious": 6246,
      "land ": 6247,
      "mü": 6248,
      "med": 6249,
      "mir": 6250,
      "pare ": 6251,
      "round\r\n": 6252,
      "snow ": 6253,
      "slight ": 6254,
      "tov": 6255,
      "wound ": 6256,
      "erg": 6257,
      "the last ": 6258,
      "ed him": 6259,
      "ed from the ": 6260,
      "orig": 6261,
      "rever": 6262,
      "reach ": 6263,
      "reve": 6264,
      "ard, ": 6265,
      "to them ": 6266,
      "to himself": 6267,
      "to look ": 6268,
      "to whom ": 6269,
      "sty ": 6270,
      "as far ": 6271,
      "in your ": 6272,
      "it, but ": 6273,
      "les of ": 6274,
      "on their ": 6275,
      "that her ": 6276,
      "acy ": 6277,
      "ed.”\r\n": 6278,
      "with some ": 6279,
      "is so ": 6280,
      "unti": 6281,
      "evol": 6282,
      "adop": 6283,
      "oundre": 6284,
      "it is\r\n": 6285,
      "conver": 6286,
      "abb": 6287,
      "ement\r\n": 6288,
      "s, he ": 6289,
      "The Emperor ": 6290,
      ",” Pierre ": 6291,
      "utter ": 6292,
      "she could not ": 6293,
      "you must ": 6294,
      "said the ": 6295,
      "might\r\n": 6296,
      ". “How ": 6297,
      "uly": 6298,
      "try, ": 6299,
      "faces, ": 6300,
      "moral ": 6301,
      "worthy ": 6302,
      "weary ": 6303,
      "mani": 6304,
      "maneu": 6305,
      "? H": 6306,
      "? How ": 6307,
      ". He did not ": 6308,
      "man was ": 6309,
      "on the other ": 6310,
      "when he was ": 6311,
      "proble": 6312,
      "way.\r\n": 6313,
      "ety ": 6314,
      "prepare ": 6315,
      "khov ": 6316,
      "fulfill": 6317,
      "under\r\n": 6318,
      "find": 6319,
      "finding ": 6320,
      "finish ": 6321,
      "arrival": 6322,
      "content": 6323,
      "understand\r\n": 6324,
      "with the same ": 6325,
      "ed by the\r\n": 6326,
      "scoundre": 6327,
      "Prince Andrew had ": 6328,
      "without any ": 6329,
      "know the ": 6330,
      "desire": 6331,
      "took\r\n": 6332,
      "here and ": 6333,
      "can\r\n": 6334,
      "than the ": 6335,
      "go to the ": 6336,
      "words\r\n": 6337,
      "follow ": 6338,
      "earth ": 6339,
      ",” he added, ": 6340,
      "long\r\n": 6341,
      "letting ": 6342,
      "Moscow\r\n": 6343,
      "countess, ": 6344,
      "wrapp": 6345,
      "provid": 6346,
      "ash ": 6347,
      "cham": 6348,
      "asked, ": 6349,
      "Nicholas’ ": 6350,
      "officer.\r\n": 6351,
      "“What a ": 6352,
      "?” said the ": 6353,
      "puck": 6354,
      "what’s ": 6355,
      "thought.\r\n": 6356,
      "ness.\r\n": 6357,
      "back, ": 6358,
      "Sónya and ": 6359,
      ". “Why ": 6360,
      "imagined ": 6361,
      "said:\r\n": 6362,
      "soft": 6363,
      "walk ": 6364,
      "book ": 6365,
      "driven ": 6366,
      "Gerá": 6367,
      ". Every ": 6368,
      "away\r\n": 6369,
      "approached ": 6370,
      "Sónya’s ": 6371,
      "closed ": 6372,
      "arranged ": 6373,
      "younger ": 6374,
      "vidently ": 6375,
      "finger": 6376,
      "red-": 6377,
      "according ": 6378,
      "crowded ": 6379,
      "guests ": 6380,
      "effort ": 6381,
      "battery ": 6382,
      "sight of the ": 6383,
      "intellect": 6384,
      "secret ": 6385,
      "dangerous ": 6386,
      "decision": 6387,
      "Serene High": 6388,
      "sympath": 6389,
      "darkness ": 6390,
      "already\r\n": 6391,
      "aide-de-camp ": 6392,
      "hanging ": 6393,
      "inhabitant": 6394,
      "never\r\n": 6395,
      "beginning to ": 6396,
      "Next day ": 6397,
      "spark": 6398,
      "Minist": 6399,
      "contradic": 6400,
      "Septem": 6401,
      "00": 6402,
      "Besid": 6403,
      "Fer": 6404,
      "Mí": 6405,
      "Mas": 6406,
      "Paul": 6407,
      "Ra": 6408,
      "a’s ": 6409,
      "ahead ": 6410,
      "dy": 6411,
      "dá": 6412,
      "den ": 6413,
      "e.”\r\n": 6414,
      "e. The ": 6415,
      "gold": 6416,
      "hood": 6417,
      "iel ": 6418,
      "jer": 6419,
      "jack": 6420,
      "m\r\n": 6421,
      "mirr": 6422,
      "pain ": 6423,
      "rang": 6424,
      "snow": 6425,
      "sat\r\n": 6426,
      "snat": 6427,
      "sang ": 6428,
      "tut": 6429,
      "vain": 6430,
      "s at ": 6431,
      "indiffer": 6432,
      "ed not ": 6433,
      "and did not ": 6434,
      "reat": 6435,
      "reck": 6436,
      "to speak ": 6437,
      ". Napoleon ": 6438,
      "of it ": 6439,
      "of my ": 6440,
      "ated, ": 6441,
      "as possible": 6442,
      "es’ ": 6443,
      "in order to ": 6444,
      "it,\r\n": 6445,
      "ity, and ": 6446,
      "sec": 6447,
      "sele": 6448,
      "will, ": 6449,
      "beha": 6450,
      "becoming ": 6451,
      "below ": 6452,
      "that he\r\n": 6453,
      "was un": 6454,
      "noi": 6455,
      "force": 6456,
      "ole of ": 6457,
      "ache ": 6458,
      ", and in ": 6459,
      "lis": 6460,
      "live": 6461,
      "with this ": 6462,
      "with his\r\n": 6463,
      "you’ve ": 6464,
      "evil ": 6465,
      "ossi": 6466,
      "conven": 6467,
      "decor": 6468,
      "while\r\n": 6469,
      "ent and ": 6470,
      "appreci": 6471,
      "but a ": 6472,
      "him the ": 6473,
      "nea": 6474,
      "nephe": 6475,
      "from the c": 6476,
      "you were ": 6477,
      "impl": 6478,
      "improv": 6479,
      "her, but ": 6480,
      "today ": 6481,
      "ray": 6482,
      "meet": 6483,
      "cea": 6484,
      ". “C": 6485,
      "so as ": 6486,
      "the cam": 6487,
      "the cau": 6488,
      "faced ": 6489,
      "known": 6490,
      "isn’t ": 6491,
      "wore ": 6492,
      "worse ": 6493,
      "Prince Bagratión ": 6494,
      "do, ": 6495,
      "doing": 6496,
      "plans ": 6497,
      "eye ": 6498,
      "But the ": 6499,
      "on the contrary ": 6500,
      "fare": 6501,
      "boy, ": 6502,
      ". It\r\n": 6503,
      ". Al": 6504,
      "tion\r\n": 6505,
      "e of the\r\n": 6506,
      "grow ": 6507,
      "grap": 6508,
      "other, ": 6509,
      "with a smile": 6510,
      "went up to the ": 6511,
      "umin": 6512,
      "Pierre,\r\n": 6513,
      "contradi": 6514,
      "mind, ": 6515,
      "anyone, ": 6516,
      "thought that ": 6517,
      "were, ": 6518,
      "men.\r\n": 6519,
      "ence and ": 6520,
      "skill": 6521,
      "over her ": 6522,
      "dull ": 6523,
      "commanders ": 6524,
      "saw the ": 6525,
      "makes ": 6526,
      "m of ": 6527,
      ". I will ": 6528,
      "day’s ": 6529,
      "back to the ": 6530,
      "distres": 6531,
      "distinc": 6532,
      "new\r\n": 6533,
      "off the ": 6534,
      "seeking ": 6535,
      "seeing the ": 6536,
      "situ": 6537,
      "sorrow ": 6538,
      "break ": 6539,
      "make a ": 6540,
      "officers, ": 6541,
      "Beaus": 6542,
      "puff": 6543,
      "train": 6544,
      "part in the ": 6545,
      "uttered ": 6546,
      "tears.\r\n": 6547,
      ". “Well, ": 6548,
      "“Mam": 6549,
      "battle, ": 6550,
      "galloping ": 6551,
      "refus": 6552,
      "fire, ": 6553,
      "crit": 6554,
      "returned to ": 6555,
      "discover": 6556,
      "matters ": 6557,
      "result of ": 6558,
      "pie": 6559,
      "ogdá": 6560,
      "Mary": 6561,
      "grim": 6562,
      "daughter’s ": 6563,
      "screw": 6564,
      "impul": 6565,
      "don’t\r\n": 6566,
      "hurried": 6567,
      "village of ": 6568,
      "pushed ": 6569,
      "law of ": 6570,
      "breath": 6571,
      "political ": 6572,
      "engagement ": 6573,
      "“Why, ": 6574,
      "grace": 6575,
      "describ": 6576,
      "impression": 6577,
      "Túshin ": 6578,
      "favorite ": 6579,
      "zháy": 6580,
      "thousands of ": 6581,
      "for a long time ": 6582,
      "wagon": 6583,
      "diplomatic ": 6584,
      "knew\r\n": 6585,
      "English ": 6586,
      "armies ": 6587,
      "organ": 6588,
      "accustomed to ": 6589,
      "minister": 6590,
      "groan": 6591,
      ". Suddenly ": 6592,
      "communic": 6593,
      "extraordinary ": 6594,
      "introduc": 6595,
      "governor’s ": 6596,
      "Mozháy": 6597,
      "Weyrother": 6598,
      "either": 6599,
      "accomplish": 6600,
      "succeed": 6601,
      "magnanim": 6602,
      "Dokhtú": 6603,
      "origin": 6604,
      "!...” ": 6605,
      "!...”\r\n": 6606,
      "Bogdá": 6607,
      "Cap": 6608,
      "Eh": 6609,
      "For": 6610,
      "Gover": 6611,
      "Máv": 6612,
      "Nov": 6613,
      "Pre": 6614,
      "Rhe": 6615,
      "Some": 6616,
      "bush": 6617,
      "city ": 6618,
      "fer ": 6619,
      "fat ": 6620,
      "fol": 6621,
      "ga ": 6622,
      "gold ": 6623,
      "good, ": 6624,
      "ires": 6625,
      "kit": 6626,
      "less, ": 6627,
      "leng": 6628,
      "mess": 6629,
      "mob": 6630,
      "pil": 6631,
      "sus": 6632,
      "ug": 6633,
      "wret": 6634,
      "à ": 6635,
      "—which ": 6636,
      "“Very ": 6637,
      "inn": 6638,
      "the army ": 6639,
      "enomen": 6640,
      "ed in\r\n": 6641,
      "re-": 6642,
      "refu": 6643,
      "ing this ": 6644,
      "ing his\r\n": 6645,
      ". Princess Mary ": 6646,
      ". Yes, ": 6647,
      "at him ": 6648,
      "at which ": 6649,
      "ate and ": 6650,
      "in it ": 6651,
      "seat": 6652,
      "wis": 6653,
      "on that ": 6654,
      "on all ": 6655,
      "alou": 6656,
      "his father ": 6657,
      "associ": 6658,
      "saved ": 6659,
      "saw\r\n": 6660,
      "river ": 6661,
      "sisti": 6662,
      "with him, ": 6663,
      "roof": 6664,
      "I can ": 6665,
      "her to ": 6666,
      "degre": 6667,
      "destruction ": 6668,
      "for their ": 6669,
      "white\r\n": 6670,
      "come and ": 6671,
      "him that ": 6672,
      "him in the ": 6673,
      "from which ": 6674,
      "persu": 6675,
      "feet": 6676,
      "ierc": 6677,
      "shak": 6678,
      "metho": 6679,
      "who has ": 6680,
      "they would ": 6681,
      "! A": 6682,
      "spite ": 6683,
      "ted and ": 6684,
      "face, and ": 6685,
      "ily, ": 6686,
      ". The countess ": 6687,
      "attribut": 6688,
      "parent": 6689,
      "part of ": 6690,
      "rumor": 6691,
      "so-": 6692,
      "ation, and ": 6693,
      "skay": 6694,
      "them and ": 6695,
      "blow ": 6696,
      "turned his ": 6697,
      "went into the ": 6698,
      "vod": 6699,
      "like that ": 6700,
      "formerly ": 6701,
      "pass": 6702,
      "contain": 6703,
      "understand the ": 6704,
      "ty.\r\n": 6705,
      "Napoleon\r\n": 6706,
      "priest": 6707,
      "where he ": 6708,
      "of his own ": 6709,
      "join ": 6710,
      "cannon": 6711,
      "surrender": 6712,
      "it was not ": 6713,
      "repul": 6714,
      "even the ": 6715,
      "ava": 6716,
      "incre": 6717,
      "three\r\n": 6718,
      "silent, ": 6719,
      "intently ": 6720,
      "fully": 6721,
      "whom he had ": 6722,
      "hungr": 6723,
      "bran": 6724,
      "courti": 6725,
      "ashing ": 6726,
      "another\r\n": 6727,
      "breast": 6728,
      "people’s ": 6729,
      "meaning": 6730,
      "stream": 6731,
      "gentle ": 6732,
      "counc": 6733,
      "phenomen": 6734,
      "importance ": 6735,
      ",” she said, ": 6736,
      "house.\r\n": 6737,
      "ourish": 6738,
      "crossed the ": 6739,
      "quarrel": 6740,
      "refuse ": 6741,
      "had not been ": 6742,
      "the old prince ": 6743,
      "decided to ": 6744,
      "Mademoiselle\r\n": 6745,
      "discussi": 6746,
      "however ": 6747,
      "Sónya.\r\n": 6748,
      "touch ": 6749,
      "simple ": 6750,
      "luck": 6751,
      ". There were ": 6752,
      "inquiringly ": 6753,
      "glass ": 6754,
      ". Let ": 6755,
      "Bezúkhov ": 6756,
      "group": 6757,
      "Andrew, ": 6758,
      "nurse ": 6759,
      "coat and ": 6760,
      "silent.\r\n": 6761,
      "“It is ": 6762,
      "asleep ": 6763,
      "notice": 6764,
      "equal ": 6765,
      "themselves, ": 6766,
      "Speránski": 6767,
      "intended to ": 6768,
      "listen ": 6769,
      "-in-law ": 6770,
      "accepted ": 6771,
      "promised to ": 6772,
      "1805": 6773,
      "yáz": 6774,
      ". Everything ": 6775,
      "Nesvítski ": 6776,
      "Christ": 6777,
      "Krás": 6778,
      "hospital": 6779,
      "occasionally ": 6780,
      "tipto": 6781,
      "handkerchief ": 6782,
      "Dolgorúkov": 6783,
      "Michael Ivánovi": 6784,
      "labor": 6785,
      "Kuzmínich": 6786,
      "external ": 6787,
      "astonish": 6788,
      "fashion": 6789,
      "forese": 6790,
      "innumerable ": 6791,
      "assume ": 6792,
      "Vereshch": 6793,
      " Lor": 6794,
      "Him": 6795,
      "Ki": 6796,
      "Lou": 6797,
      "Lit": 6798,
      "Ram": 6799,
      "Ryaz": 6800,
      "Then ": 6801,
      "awaiting ": 6802,
      "ce\r\n": 6803,
      "cut": 6804,
      "ff ": 6805,
      "found": 6806,
      "hut": 6807,
      "rí": 6808,
      "rent ": 6809,
      "rank ": 6810,
      "san": 6811,
      "sank ": 6812,
      "zen ": 6813,
      "zog": 6814,
      "ér": 6815,
      "thick": 6816,
      "iness, ": 6817,
      "incomprehensible ": 6818,
      "the other ": 6819,
      "and in ": 6820,
      "rear": 6821,
      ". And\r\n": 6822,
      "he took ": 6823,
      "at first ": 6824,
      "at Bald Hill": 6825,
      "a small ": 6826,
      "chan": 6827,
      "in all ": 6828,
      "in any ": 6829,
      "itut": 6830,
      "wide ": 6831,
      "no, ": 6832,
      "forti": 6833,
      "say\r\n": 6834,
      "olzog": 6835,
      "share ": 6836,
      "she.\r\n": 6837,
      "rother ": 6838,
      "not yet ": 6839,
      "I can’t ": 6840,
      "her husband ": 6841,
      "delight ": 6842,
      "aged ": 6843,
      "eldest ": 6844,
      "for my ": 6845,
      "expla": 6846,
      "coming": 6847,
      "compos": 6848,
      "one of\r\n": 6849,
      "out to ": 6850,
      ",” continued ": 6851,
      "she is ": 6852,
      "ed to a ": 6853,
      "you don’t ": 6854,
      "quick ": 6855,
      "perspir": 6856,
      "have the ": 6857,
      ". “It ": 6858,
      ". His\r\n": 6859,
      "spend ": 6860,
      "ism": 6861,
      "more, ": 6862,
      "arm, ": 6863,
      "army.\r\n": 6864,
      "old and ": 6865,
      "fight": 6866,
      "tea": 6867,
      "man,\r\n": 6868,
      "do\r\n": 6869,
      "up a ": 6870,
      "up to\r\n": 6871,
      "day\r\n": 6872,
      "Pierre did not ": 6873,
      "? S": 6874,
      "attacked ": 6875,
      "man of ": 6876,
      "only to ": 6877,
      "could not\r\n": 6878,
      "begin ": 6879,
      "propri": 6880,
      "“Well ": 6881,
      "otherwi": 6882,
      "blow": 6883,
      "nice ": 6884,
      "turned\r\n": 6885,
      "preoccupi": 6886,
      "prevent ": 6887,
      "came in ": 6888,
      "energ": 6889,
      "pale": 6890,
      ": the ": 6891,
      "we were ": 6892,
      "like to ": 6893,
      "ready": 6894,
      "way to ": 6895,
      "contem": 6896,
      "You\r\n": 6897,
      "poe": 6898,
      "anything, ": 6899,
      "men’s ": 6900,
      "down and ": 6901,
      "made\r\n": 6902,
      ". Of ": 6903,
      "interview ": 6904,
      "corner": 6905,
      "saw that ": 6906,
      "as if he ": 6907,
      "obtain ": 6908,
      "late": 6909,
      "told me ": 6910,
      "saying, ": 6911,
      "ood-": 6912,
      "happened to ": 6913,
      "evidently not ": 6914,
      "humor": 6915,
      "cloak ": 6916,
      "bree": 6917,
      "glancing at ": 6918,
      "hot": 6919,
      "“Yes, yes, ": 6920,
      "France ": 6921,
      "water": 6922,
      "friendly ": 6923,
      "soldiers\r\n": 6924,
      "“No, I ": 6925,
      "meaning of ": 6926,
      "Count Rostopchín": 6927,
      "adjutants ": 6928,
      "cold, ": 6929,
      "conscious ": 6930,
      "try to ": 6931,
      "staying ": 6932,
      "When the ": 6933,
      "animated ": 6934,
      "attered ": 6935,
      "it’s not ": 6936,
      "pace ": 6937,
      "Hélène, ": 6938,
      "shoulders, ": 6939,
      "shoulders and ": 6940,
      "difficult to ": 6941,
      "since the ": 6942,
      ". These ": 6943,
      "decided ": 6944,
      "suffering": 6945,
      "naturally ": 6946,
      "pretend": 6947,
      "society, ": 6948,
      "falling ": 6949,
      "in front of the ": 6950,
      "danger ": 6951,
      "needed ": 6952,
      "paper": 6953,
      "“Let ": 6954,
      "would not be ": 6955,
      "Anna Mikháylovna, ": 6956,
      "picked ": 6957,
      "pictur": 6958,
      "fifteen ": 6959,
      "wearing ": 6960,
      "enetr": 6961,
      "visitors ": 6962,
      "there is no ": 6963,
      "leaned ": 6964,
      "respectfully ": 6965,
      "Ilyín": 6966,
      "family, ": 6967,
      "gesture": 6968,
      "valet ": 6969,
      "column ": 6970,
      "passionate ": 6971,
      "intellig": 6972,
      "secret": 6973,
      "Ivánov": 6974,
      "Daniel ": 6975,
      "welfare ": 6976,
      "passage ": 6977,
      "recalled ": 6978,
      "characterist": 6979,
      "sympathy ": 6980,
      "Suvó": 6981,
      "pillow": 6982,
      "begun to ": 6983,
      "awkward ": 6984,
      "irresisti": 6985,
      "setting ": 6986,
      "Boguchárovo ": 6987,
      "slowly ": 6988,
      "superior": 6989,
      "vicomte ": 6990,
      "disapprov": 6991,
      "hoof": 6992,
      "Kalúga ": 6993,
      "the campa": 6994,
      "?...”\r\n": 6995,
      "Br": 6996,
      "De": 6997,
      "Dris": 6998,
      "Hor": 6999,
      "Stre": 7000,
      "To": 7001,
      "ait ": 7002,
      "aid": 7003,
      "cast ": 7004,
      "flight ": 7005,
      "fought ": 7006,
      "gyp": 7007,
      "gossi": 7008,
      "mos": 7009,
      "mong ": 7010,
      "rate ": 7011,
      "sla": 7012,
      "ted": 7013,
      "tun": 7014,
      "wed": 7015,
      "y. He ": 7016,
      "án ": 7017,
      "—but ": 7018,
      "“Go": 7019,
      "s was ": 7020,
      "s is ": 7021,
      "ern": 7022,
      ", had ": 7023,
      "ening ": 7024,
      "y of the ": 7025,
      "ed or ": 7026,
      "and all ": 7027,
      "and began ": 7028,
      "and again ": 7029,
      "replac": 7030,
      "red.\r\n": 7031,
      "ar, ": 7032,
      "around": 7033,
      "to leave ": 7034,
      "hap": 7035,
      "haven": 7036,
      ". Denísov ": 7037,
      ". Anatole ": 7038,
      "stum": 7039,
      "he is": 7040,
      "ated and ": 7041,
      "om, ": 7042,
      "ome, ": 7043,
      "it!”\r\n": 7044,
      "his horse ": 7045,
      "be, ": 7046,
      "bed\r\n": 7047,
      "that were ": 7048,
      "olog": 7049,
      "him.”\r\n": 7050,
      "sill": 7051,
      "died ": 7052,
      "dimin": 7053,
      ", and was ": 7054,
      ", and now ": 7055,
      "with her": 7056,
      "heel": 7057,
      "heavi": 7058,
      "es in ": 7059,
      "it seemed ": 7060,
      "it can’t ": 7061,
      "ve and ": 7062,
      "concei": 7063,
      "deal ": 7064,
      "depres": 7065,
      "icon ": 7066,
      "ely.\r\n": 7067,
      "s, who ": 7068,
      "expos": 7069,
      "extend": 7070,
      ",” * ": 7071,
      ",” remarked ": 7072,
      "negoti": 7073,
      "ed to her ": 7074,
      "you see ": 7075,
      "mili": 7076,
      "might": 7077,
      "by the c": 7078,
      "were the ": 7079,
      "were all ": 7080,
      "lay\r\n": 7081,
      "lavi": 7082,
      "shaw": 7083,
      "medic": 7084,
      "which were ": 7085,
      "who was\r\n": 7086,
      "who had\r\n": 7087,
      ". Here ": 7088,
      "tram": 7089,
      "did it ": 7090,
      "wet ": 7091,
      "fill ": 7092,
      "ily\r\n": 7093,
      "preser": 7094,
      "every\r\n": 7095,
      "anger": 7096,
      "? A": 7097,
      "? O": 7098,
      "cipl": 7099,
      "ed, and\r\n": 7100,
      "loving ": 7101,
      "faith": 7102,
      "bodi": 7103,
      "ations of ": 7104,
      ", but I ": 7105,
      "“When ": 7106,
      ",” said she, ": 7107,
      "tion, ": 7108,
      "takes ": 7109,
      "with a smile.\r\n": 7110,
      "paus": 7111,
      "Princess": 7112,
      "very well ": 7113,
      "clut": 7114,
      "offici": 7115,
      "how she ": 7116,
      "able to\r\n": 7117,
      "gave\r\n": 7118,
      "formed ": 7119,
      "Natásha had ": 7120,
      "porch ": 7121,
      "Nicholas\r\n": 7122,
      "French army ": 7123,
      "scri": 7124,
      "mind.\r\n": 7125,
      "He did not ": 7126,
      "lift ": 7127,
      "life of ": 7128,
      "into her ": 7129,
      "such an ": 7130,
      "then the ": 7131,
      "clean ": 7132,
      "houses ": 7133,
      "house\r\n": 7134,
      "ill-": 7135,
      "places ": 7136,
      "place and ": 7137,
      "left flank": 7138,
      "betro": 7139,
      "words of ": 7140,
      "Rostóv had ": 7141,
      "capac": 7142,
      "seni": 7143,
      ". I have ": 7144,
      "marrying ": 7145,
      ",” he said.\r\n": 7146,
      "merch": 7147,
      "led him ": 7148,
      "news of ": 7149,
      "Kutúzov was ": 7150,
      "drawing\r\n": 7151,
      "fronti": 7152,
      "provinc": 7153,
      "struggl": 7154,
      "give you ": 7155,
      "gave her ": 7156,
      "court": 7157,
      "humili": 7158,
      "offer ": 7159,
      "“Yes, yes": 7160,
      "watched ": 7161,
      ", “and ": 7162,
      "house and ": 7163,
      "stopped and ": 7164,
      "line": 7165,
      "supper ": 7166,
      "Count Ilyá ": 7167,
      "kiss ": 7168,
      "servants ": 7169,
      "world, ": 7170,
      "terrible": 7171,
      "ity,\r\n": 7172,
      "summon": 7173,
      "soft ": 7174,
      "gun ": 7175,
      "kind, ": 7176,
      "awaken": 7177,
      "footstep": 7178,
      "busy ": 7179,
      "heaven ": 7180,
      "herself, ": 7181,
      "thousand men ": 7182,
      "position, ": 7183,
      "piec": 7184,
      "entirely ": 7185,
      "home, ": 7186,
      "resolute ": 7187,
      "Marsha": 7188,
      "! That’s ": 7189,
      "destroy ": 7190,
      "fixed on ": 7191,
      "Russians, ": 7192,
      "painful ": 7193,
      "hair, ": 7194,
      "reply.\r\n": 7195,
      "desire ": 7196,
      "usual": 7197,
      "! We ": 7198,
      "realize ": 7199,
      "acquaintanc": 7200,
      "politic": 7201,
      "gesture ": 7202,
      "genius ": 7203,
      "accept ": 7204,
      "domest": 7205,
      "quietly ": 7206,
      "Olmü": 7207,
      "lit up ": 7208,
      "music ": 7209,
      "directly ": 7210,
      "glittering ": 7211,
      "Hélène’s ": 7212,
      "Pfuel ": 7213,
      "top ": 7214,
      "combin": 7215,
      "the coach": 7216,
      "lodg": 7217,
      "1.E": 7218,
      "maintain": 7219,
      "delicate ": 7220,
      "mingled ": 7221,
      "Makár": 7222,
      "drink ": 7223,
      "dirty ": 7224,
      "employ": 7225,
      "vividly ": 7226,
      "Shevárdino ": 7227,
      "Raév": 7228,
      "“Mamma": 7229,
      "messeng": 7230,
      "Krásno": 7231,
      "lavichor": 7232,
      "Olmüt": 7233,
      ".)\r\n": 7234,
      "Again ": 7235,
      "Dr": 7236,
      "Fri": 7237,
      "Hend": 7238,
      "Kon": 7239,
      "Redou": 7240,
      "Toll": 7241,
      "Vyáz": 7242,
      "bank": 7243,
      "cost": 7244,
      "cost ": 7245,
      "eat ": 7246,
      "equi": 7247,
      "eight": 7248,
      "fli": 7249,
      "folk": 7250,
      "lack ": 7251,
      "láv": 7252,
      "nes": 7253,
      "ners ": 7254,
      "nations ": 7255,
      "ple ": 7256,
      "pierc": 7257,
      "sa ": 7258,
      "sour": 7259,
      "s,” said ": 7260,
      "swif": 7261,
      "sn’t ": 7262,
      "sun ": 7263,
      "sought ": 7264,
      "scho": 7265,
      "tast": 7266,
      "tsev": 7267,
      "uri": 7268,
      "wine ": 7269,
      "éy ": 7270,
      "“K": 7271,
      "“She ": 7272,
      "thos": 7273,
      "inno": 7274,
      "erri": 7275,
      "ers of ": 7276,
      "the very ": 7277,
      "the men ": 7278,
      "en.\r\n": 7279,
      "ing: ": 7280,
      "and were ": 7281,
      "and Natásha ": 7282,
      "orád": 7283,
      "hid ": 7284,
      "ree ": 7285,
      "re, ": 7286,
      "review": 7287,
      "arrest": 7288,
      "to their ": 7289,
      "to be\r\n": 7290,
      "ing on ": 7291,
      "ing an ": 7292,
      "at every ": 7293,
      "a word ": 7294,
      "espite ": 7295,
      "itte": 7296,
      "it. He ": 7297,
      "itary ": 7298,
      "les and ": 7299,
      "led, ": 7300,
      "on the c": 7301,
      "that one ": 7302,
      "asion ": 7303,
      "nothing, ": 7304,
      "sack": 7305,
      "acknowled": 7306,
      "ovich ": 7307,
      "distr": 7308,
      "ed. But ": 7309,
      "lives ": 7310,
      "is my ": 7311,
      "uneas": 7312,
      "unfortun": 7313,
      "hether ": 7314,
      "entren": 7315,
      "’s and ": 7316,
      "ounce ": 7317,
      "fram": 7318,
      "about, ": 7319,
      "for him": 7320,
      "for this ": 7321,
      "s, a ": 7322,
      "extre": 7323,
      "or that ": 7324,
      "come, ": 7325,
      "out into the ": 7326,
      "waist": 7327,
      "miser": 7328,
      "permission ": 7329,
      "by her ": 7330,
      "by its ": 7331,
      "to the Emperor": 7332,
      "mead": 7333,
      ". “I": 7334,
      ". “I have ": 7335,
      "they were\r\n": 7336,
      "! C": 7337,
      "this and ": 7338,
      "ism ": 7339,
      "are the ": 7340,
      "presence": 7341,
      ". Two ": 7342,
      ". The count ": 7343,
      "? The ": 7344,
      "? He ": 7345,
      "at the head ": 7346,
      "And the ": 7347,
      "proclam": 7348,
      "both\r\n": 7349,
      ". I\r\n": 7350,
      ". I’ll ": 7351,
      "Rostóv\r\n": 7352,
      "no long": 7353,
      "something, ": 7354,
      "tion.\r\n": 7355,
      "them the ": 7356,
      "others, ": 7357,
      "goes ": 7358,
      "prevent": 7359,
      "commenc": 7360,
      "came to the ": 7361,
      "energe": 7362,
      "path": 7363,
      "pale, ": 7364,
      "handsom": 7365,
      "clu": 7366,
      "final ": 7367,
      "how he ": 7368,
      "much\r\n": 7369,
      "est and ": 7370,
      "... and ": 7371,
      "time and ": 7372,
      "scor": 7373,
      "pot": 7374,
      "without knowing ": 7375,
      "“I know ": 7376,
      "then he ": 7377,
      "that the French ": 7378,
      "dinner, ": 7379,
      "ordered to ": 7380,
      "because": 7381,
      "commander, ": 7382,
      "correc": 7383,
      "correspon": 7384,
      "aval": 7385,
      "marching ": 7386,
      "heart, ": 7387,
      ",” he said": 7388,
      "saying.\r\n": 7389,
      ". And the ": 7390,
      "having been ": 7391,
      "Moscow.\r\n": 7392,
      "ized ": 7393,
      "“One ": 7394,
      "laugh ": 7395,
      "laughed ": 7396,
      "seemed to her ": 7397,
      "gave a ": 7398,
      "toward\r\n": 7399,
      "moment of ": 7400,
      "moan": 7401,
      "noticing ": 7402,
      "monarch": 7403,
      "off, ": 7404,
      "excuse ": 7405,
      "down.\r\n": 7406,
      "commander of the ": 7407,
      "stopped, ": 7408,
      "beside the ": 7409,
      "both sid": 7410,
      "Count Rostopchín ": 7411,
      "got up and ": 7412,
      "a bad ": 7413,
      "Princess Mary\r\n": 7414,
      "raising his ": 7415,
      "action, ": 7416,
      "side and ": 7417,
      "boots ": 7418,
      "excellent ": 7419,
      "creat": 7420,
      "joyfully ": 7421,
      "member": 7422,
      "side\r\n": 7423,
      "side.\r\n": 7424,
      "what was happen": 7425,
      "sister ": 7426,
      "closed his ": 7427,
      "arrangement": 7428,
      "study": 7429,
      "think, ": 7430,
      "excellency, ": 7431,
      "Karágin": 7432,
      "excited ": 7433,
      "excitement ": 7434,
      "next day ": 7435,
      "Bolkónski, ": 7436,
      "across ": 7437,
      "sounded ": 7438,
      "one another, ": 7439,
      "one another.\r\n": 7440,
      "striking ": 7441,
      "griev": 7442,
      "frowning ": 7443,
      "dancing ": 7444,
      "hurried ": 7445,
      "badly ": 7446,
      "circle ": 7447,
      "doctors ": 7448,
      "separated ": 7449,
      "burned ": 7450,
      "floor": 7451,
      "interrupted him.\r\n": 7452,
      "future": 7453,
      "snor": 7454,
      "reflection": 7455,
      "knoll ": 7456,
      "dorov": 7457,
      "constantly ": 7458,
      "physi": 7459,
      "fourth ": 7460,
      "pointing to the ": 7461,
      "false ": 7462,
      "regard to ": 7463,
      "convinced that ": 7464,
      "vanish": 7465,
      "!” shouted the ": 7466,
      "advantag": 7467,
      "distinguish ": 7468,
      ",” said he.\r\n": 7469,
      "Niem": 7470,
      "gradually ": 7471,
      "militiam": 7472,
      "stock": 7473,
      "handkerchief": 7474,
      "Dolgorúkov ": 7475,
      "tranquill": 7476,
      "infinit": 7477,
      ". Sónya ": 7478,
      "shrugged his ": 7479,
      "Milorád": 7480,
      "individu": 7481,
      "exactly ": 7482,
      "baggage ": 7483,
      "October ": 7484,
      "vehicle": 7485,
      "eutenant ": 7486,
      "public ": 7487,
      "manife": 7488,
      "ríkhov": 7489,
      "Hendríkhov": 7490,
      "Redoub": 7491,
      "(the ": 7492,
      "Chi": 7493,
      "Clu": 7494,
      "In": 7495,
      "Revol": 7496,
      "Sun": 7497,
      "Vor": 7498,
      "We ": 7499,
      "Wolzog": 7500,
      "Yes": 7501,
      "bust": 7502,
      "cough": 7503,
      "cra": 7504,
      "dam ": 7505,
      "fit ": 7506,
      "fast ": 7507,
      "flying ": 7508,
      "good\r\n": 7509,
      "ile ": 7510,
      "langu": 7511,
      "nap": 7512,
      "ras": 7513,
      "ted, ": 7514,
      "told\r\n": 7515,
      "xim": 7516,
      "yet": 7517,
      "—“": 7518,
      "’”\r\n": 7519,
      "thick ": 7520,
      "s who ": 7521,
      "an, ": 7522,
      ", when ": 7523,
      "the door ": 7524,
      "restor": 7525,
      "requir": 7526,
      "to that ": 7527,
      "to us ": 7528,
      ". P": 7529,
      ". ‘": 7530,
      ". An": 7531,
      ". Kutúzov ": 7532,
      "he will ": 7533,
      "a t": 7534,
      "a large ": 7535,
      "a certain ": 7536,
      "as in ": 7537,
      "escor": 7538,
      "oward ": 7539,
      "charm ": 7540,
      "in one ": 7541,
      "in such ": 7542,
      "ited ": 7543,
      "seat ": 7544,
      "sed.\r\n": 7545,
      "his head": 7546,
      "became\r\n": 7547,
      "that she was ": 7548,
      "was only ": 7549,
      "note ": 7550,
      "sist ": 7551,
      "timid ": 7552,
      "why": 7553,
      "why, ": 7554,
      ", and she ": 7555,
      "an adjutant ": 7556,
      "an hour ": 7557,
      "with such ": 7558,
      "with whom ": 7559,
      "had to be ": 7560,
      "rose, ": 7561,
      "und": 7562,
      "uncomfort": 7563,
      "evo": 7564,
      "not knowing ": 7565,
      "’s face ": 7566,
      "it had been ": 7567,
      "her hand ": 7568,
      "of the Russian ": 7569,
      "emon": 7570,
      "ember ": 7571,
      "approach ": 7572,
      "out of\r\n": 7573,
      ",” and he ": 7574,
      "she had been ": 7575,
      "from one ": 7576,
      "from all ": 7577,
      "mile ": 7578,
      "be a ": 7579,
      "to the Emperor ": 7580,
      "der, ": 7581,
      "rain": 7582,
      "met": 7583,
      "they did not ": 7584,
      "face,\r\n": 7585,
      "!” cri": 7586,
      "word and ": 7587,
      "are you": 7588,
      "week ": 7589,
      "iling ": 7590,
      "teach ": 7591,
      "up with ": 7592,
      "would have\r\n": 7593,
      "? No": 7594,
      "? They ": 7595,
      ". He felt ": 7596,
      "could see ": 7597,
      "fast": 7598,
      "“What’s ": 7599,
      ". She had ": 7600,
      ",” said Pierre.\r\n": 7601,
      "them all": 7602,
      "them all ": 7603,
      "going": 7604,
      "with a sigh": 7605,
      "may\r\n": 7606,
      "preced": 7607,
      "gives ": 7608,
      "do it ": 7609,
      "hands.\r\n": 7610,
      "de Beaus": 7611,
      "finally ": 7612,
      ": ‘": 7613,
      "flè": 7614,
      "fles": 7615,
      "we can ": 7616,
      "horror": 7617,
      ". While ": 7618,
      "desp": 7619,
      "son.\r\n": 7620,
      "drown": 7621,
      "joined ": 7622,
      "clever": 7623,
      "crim": 7624,
      "reply to ": 7625,
      "brighten": 7626,
      "even more ": 7627,
      "pleased ": 7628,
      "Frenchmen ": 7629,
      "must have ": 7630,
      "capable ": 7631,
      "capture ": 7632,
      "making\r\n": 7633,
      "later": 7634,
      "Moscow and ": 7635,
      ". It was\r\n": 7636,
      "helpl": 7637,
      "ly, but ": 7638,
      "all the same ": 7639,
      "Moscow, and ": 7640,
      "ments ": 7641,
      "treat": 7642,
      "through the\r\n": 7643,
      "there, and ": 7644,
      "torn ": 7645,
      "newly ": 7646,
      "power, ": 7647,
      "less than ": 7648,
      "seek ": 7649,
      "smiled.\r\n": 7650,
      "gave the ": 7651,
      "changing ": 7652,
      "chall": 7653,
      "famous ": 7654,
      "troops, ": 7655,
      "moon": 7656,
      "moder": 7657,
      "lightly ": 7658,
      "advis": 7659,
      "holy ": 7660,
      "monstr": 7661,
      "offen": 7662,
      "put it ": 7663,
      "“Yes, I ": 7664,
      "officer’s ": 7665,
      "shall be ": 7666,
      ", “but ": 7667,
      "empty ": 7668,
      "line of ": 7669,
      "rode up to ": 7670,
      "Kutúzov.\r\n": 7671,
      "necessity ": 7672,
      "displeas": 7673,
      "Count Bezúkhov": 7674,
      "death, ": 7675,
      "color": 7676,
      "apart": 7677,
      "cross": 7678,
      "drawing room, ": 7679,
      "tears of ": 7680,
      "going to the ": 7681,
      "social ": 7682,
      "grav": 7683,
      "opened his ": 7684,
      "soften": 7685,
      "name": 7686,
      "ship ": 7687,
      "Dólokhov.\r\n": 7688,
      "horses and ": 7689,
      "paces ": 7690,
      "returning ": 7691,
      "destin": 7692,
      ". No one ": 7693,
      "movement of ": 7694,
      "smoke": 7695,
      "decided that ": 7696,
      "where, ": 7697,
      "Alexander": 7698,
      "natured ": 7699,
      "losop": 7700,
      "position.\r\n": 7701,
      ". Don’t ": 7702,
      "After the ": 7703,
      "covered with ": 7704,
      "papers ": 7705,
      "woman, ": 7706,
      "alive": 7707,
      "inquired ": 7708,
      "deliver": 7709,
      "trembl": 7710,
      "fifty ": 7711,
      "imagination ": 7712,
      "As soon ": 7713,
      "infantry": 7714,
      "floor ": 7715,
      "my dear, ": 7716,
      "reflected ": 7717,
      "health": 7718,
      "constitut": 7719,
      "petition": 7720,
      "ventur": 7721,
      "learned ": 7722,
      "frost": 7723,
      "Schö": 7724,
      ". Everyone ": 7725,
      "trouble ": 7726,
      "advantage": 7727,
      "plump ": 7728,
      "property ": 7729,
      "’s” ": 7730,
      "Murat ": 7731,
      "benefactor": 7732,
      "countess’ ": 7733,
      "a long time ": 7734,
      "humanity ": 7735,
      "English": 7736,
      "gloomy ": 7737,
      "speech ": 7738,
      "smooth": 7739,
      "motionless ": 7740,
      "Davout ": 7741,
      "cousin": 7742,
      "search ": 7743,
      "Turk": 7744,
      "philosop": 7745,
      "members of the ": 7746,
      "popul": 7747,
      "conquer": 7748,
      "autumn ": 7749,
      "tongu": 7750,
      "implor": 7751,
      "1.E.": 7752,
      "school": 7753,
      "-up ": 7754,
      "Cather": 7755,
      "E ": 7756,
      "El": 7757,
      "Fë": 7758,
      "Jun": 7759,
      "King of ": 7760,
      "Mat": 7761,
      "Some ": 7762,
      "Yar": 7763,
      "bos": 7764,
      "blis": 7765,
      "cro": 7766,
      "cun": 7767,
      "ct\r\n": 7768,
      "ct, ": 7769,
      "custom": 7770,
      "done\r\n": 7771,
      "ee ": 7772,
      "fain": 7773,
      "food ": 7774,
      "gate ": 7775,
      "gate": 7776,
      "iv": 7777,
      "ies of ": 7778,
      "l\r\n": 7779,
      "nit": 7780,
      "nine ": 7781,
      "pt": 7782,
      "ple of ": 7783,
      "penetr": 7784,
      "rom": 7785,
      "rac": 7786,
      "sou": 7787,
      "sat": 7788,
      "s. She ": 7789,
      "tone": 7790,
      "useless ": 7791,
      "zin": 7792,
      "—to ": 7793,
      "—I ": 7794,
      "“R": 7795,
      "“Be": 7796,
      "s at the ": 7797,
      "inspe": 7798,
      "inner ": 7799,
      "inspir": 7800,
      "erec": 7801,
      "anno": 7802,
      "the young ": 7803,
      "en’t ": 7804,
      "ed only ": 7805,
      "and re": 7806,
      "hidden ": 7807,
      "to tell ": 7808,
      "to ask ": 7809,
      "hall": 7810,
      ". Pétya ": 7811,
      "of how ": 7812,
      "of its ": 7813,
      "stom": 7814,
      "he began ": 7815,
      "he say": 7816,
      "he began to ": 7817,
      "at their ": 7818,
      "in her\r\n": 7819,
      "in order ": 7820,
      "itim": 7821,
      "wide-": 7822,
      "let\r\n": 7823,
      "on him ": 7824,
      "on this ": 7825,
      "on dut": 7826,
      "also\r\n": 7827,
      "bel": 7828,
      "was about to ": 7829,
      "nois": 7830,
      "sav": 7831,
      "safe": 7832,
      "sacr": 7833,
      "rist": 7834,
      "him: ": 7835,
      ", and her ": 7836,
      "ed. She ": 7837,
      "lip ": 7838,
      "an army ": 7839,
      "with my ": 7840,
      "had never ": 7841,
      "not merely ": 7842,
      "osláv": 7843,
      "advice ": 7844,
      "amus": 7845,
      "ambas": 7846,
      "her father ": 7847,
      "condem": 7848,
      "else, ": 7849,
      "whip ": 7850,
      "apón": 7851,
      "explo": 7852,
      "one after ": 7853,
      "The French ": 7854,
      "all her ": 7855,
      "she saw ": 7856,
      "she had\r\n": 7857,
      "ed to see ": 7858,
      "wav": 7859,
      "wast": 7860,
      "way\r\n": 7861,
      "upper ": 7862,
      "by this ": 7863,
      "ess and ": 7864,
      "ess of ": 7865,
      "me.”\r\n": 7866,
      "in the world": 7867,
      "some of ": 7868,
      "them.”\r\n": 7869,
      "trous": 7870,
      "what he\r\n": 7871,
      "! G": 7872,
      "worth ": 7873,
      "arm and ": 7874,
      "teach": 7875,
      "s of that ": 7876,
      "? But ": 7877,
      "parag": 7878,
      "ruined ": 7879,
      "cause": 7880,
      "could have ": 7881,
      "when he\r\n": 7882,
      "ities": 7883,
      "if they ": 7884,
      ",” said Pierre, ": 7885,
      "ground, ": 7886,
      "blind": 7887,
      "about her ": 7888,
      "about the\r\n": 7889,
      "ly. “": 7890,
      "may": 7891,
      "giv": 7892,
      "ing, the ": 7893,
      "ing, he ": 7894,
      "great\r\n": 7895,
      "cler": 7896,
      "coincid": 7897,
      "flourish": 7898,
      "Empereur": 7899,
      "himself with ": 7900,
      "time he ": 7901,
      "without looking at ": 7902,
      "know how ": 7903,
      "life\r\n": 7904,
      "small, ": 7905,
      "and the same ": 7906,
      "“I will ": 7907,
      "before his ": 7908,
      "before him ": 7909,
      "dry ": 7910,
      "can’t": 7911,
      "any other ": 7912,
      "room\r\n": 7913,
      "go on": 7914,
      "dining ": 7915,
      "orders, ": 7916,
      "place, ": 7917,
      "dress, ": 7918,
      "sternly ": 7919,
      "reput": 7920,
      ". Oh, ": 7921,
      "eyes were ": 7922,
      "words to ": 7923,
      "long since ": 7924,
      "brisk": 7925,
      "sion, ": 7926,
      "could not help ": 7927,
      "made the ": 7928,
      "can I ": 7929,
      "suddenly, ": 7930,
      "took a ": 7931,
      ",” he add": 7932,
      "long, ": 7933,
      "keeper": 7934,
      "fully.\r\n": 7935,
      "distant ": 7936,
      "treated ": 7937,
      "spoil": 7938,
      "called\r\n": 7939,
      "turned away ": 7940,
      "submis": 7941,
      "chat": 7942,
      "child, ": 7943,
      "good and ": 7944,
      "closely ": 7945,
      "listening to the ": 7946,
      "breast ": 7947,
      "darling": 7948,
      "answered the ": 7949,
      "make out ": 7950,
      "war, ": 7951,
      "officers and ": 7952,
      "question, ": 7953,
      "considering ": 7954,
      "seemed to\r\n": 7955,
      "singing ": 7956,
      "whether he ": 7957,
      "train ": 7958,
      "adjutant, ": 7959,
      "conscious of ": 7960,
      "showing ": 7961,
      "confli": 7962,
      "one of those ": 7963,
      "cross ": 7964,
      "drawing room.\r\n": 7965,
      "raise ": 7966,
      "grad ": 7967,
      "nor the ": 7968,
      "battle\r\n": 7969,
      "action.\r\n": 7970,
      "charg": 7971,
      "depth": 7972,
      "crack": 7973,
      "laws ": 7974,
      "bridge, ": 7975,
      "smoke, ": 7976,
      ". My ": 7977,
      "bowed his ": 7978,
      "wind ": 7979,
      "touched ": 7980,
      "gentleman": 7981,
      "arrange ": 7982,
      "table.\r\n": 7983,
      "pray ": 7984,
      "better than ": 7985,
      "causes ": 7986,
      "simplic": 7987,
      "Bolkónski.\r\n": 7988,
      "pite": 7989,
      "my dear sir": 7990,
      "powerful ": 7991,
      "grief": 7992,
      "haired ": 7993,
      "foreign ": 7994,
      "delighted ": 7995,
      "inevitably ": 7996,
      "Prat": 7997,
      "ranks ": 7998,
      ". To the ": 7999,
      "St. G": 8000,
      "mustache ": 8001,
      "stepping ": 8002,
      "flushed ": 8003,
      "spring ": 8004,
      "sprang ": 8005,
      "heard.\r\n": 8006,
      "intention ": 8007,
      "equal": 8008,
      "joined the ": 8009,
      "themselves": 8010,
      "attracted ": 8011,
      "eager ": 8012,
      "eagerly ": 8013,
      "exped": 8014,
      "listen to ": 8015,
      "Europe ": 8016,
      "marshal ": 8017,
      "passag": 8018,
      "o’clock": 8019,
      "false": 8020,
      "unexpected": 8021,
      "There was ": 8022,
      "battle of Borodinó": 8023,
      "battle of Borodinó ": 8024,
      "radiant ": 8025,
      "managed to ": 8026,
      "catch ": 8027,
      "conceal ": 8028,
      "Old ": 8029,
      "ra Kuzmínich": 8030,
      "s’\r\n": 8031,
      "sleigh ": 8032,
      "retired ": 8033,
      "gleam": 8034,
      "shirt ": 8035,
      "aide-de-camp": 8036,
      "the child": 8037,
      ". Besides ": 8038,
      "Theo": 8039,
      "dismount": 8040,
      "hundreds of ": 8041,
      "conclusion ": 8042,
      "millions of ": 8043,
      "elderly ": 8044,
      "Duke ": 8045,
      "During the ": 8046,
      "paused": 8047,
      "distinct": 8048,
      "encounter ": 8049,
      "woke ": 8050,
      "thou ": 8051,
      "choose ": 8052,
      "responsibility ": 8053,
      "Pávlograd ": 8054,
      "the carriage ": 8055,
      "universal ": 8056,
      "Shinshín": 8057,
      "electronic work": 8058,
      "Ramball": 8059,
      "haven’t ": 8060,
      "Yarosláv": 8061,
      "annoy": 8062,
      "),\r\n": 8063,
      "), but ": 8064,
      "-old ": 8065,
      "0 ": 8066,
      "1) ": 8067,
      "An ": 8068,
      "Ho": 8069,
      "Le": 8070,
      "Me": 8071,
      "No one ": 8072,
      "Pl": 8073,
      "Si": 8074,
      "a, and ": 8075,
      "east": 8076,
      "ider": 8077,
      "l, ": 8078,
      "lack": 8079,
      "mere ": 8080,
      "mour": 8081,
      "mount": 8082,
      "ned ": 8083,
      "pup": 8084,
      "ption ": 8085,
      "rang ": 8086,
      "s?” ": 8087,
      "s. I ": 8088,
      "s. And ": 8089,
      "tac": 8090,
      "ty\r\n": 8091,
      "ts of ": 8092,
      "ten\r\n": 8093,
      "ures": 8094,
      "wall ": 8095,
      "west ": 8096,
      "zen": 8097,
      "zlóv": 8098,
      "óne": 8099,
      "—as ": 8100,
      "“Re": 8101,
      "er,\r\n": 8102,
      "an’t ": 8103,
      ", but\r\n": 8104,
      "the day ": 8105,
      "the honor ": 8106,
      "envel": 8107,
      "ed in a ": 8108,
      "ed its ": 8109,
      "and in": 8110,
      "hir": 8111,
      "reproach ": 8112,
      "to your ": 8113,
      "to him.\r\n": 8114,
      "to him and ": 8115,
      "to blam": 8116,
      "to blame ": 8117,
      "ing on the ": 8118,
      ". Perhaps ": 8119,
      "stall": 8120,
      "stick ": 8121,
      "he looked ": 8122,
      "ated by ": 8123,
      "atmos": 8124,
      "as his ": 8125,
      "as to the ": 8126,
      "as long ": 8127,
      "in our ": 8128,
      "in French": 8129,
      "in dis": 8130,
      "ses of ": 8131,
      "wip": 8132,
      "al, and ": 8133,
      "his whole ": 8134,
      "best": 8135,
      "that we ": 8136,
      "that Napoleon ": 8137,
      "that it is ": 8138,
      "asc": 8139,
      "was that ": 8140,
      "was there ": 8141,
      "was always ": 8142,
      "forb": 8143,
      "risen ": 8144,
      "achi": 8145,
      "acking ": 8146,
      "ovnít": 8147,
      "did, ": 8148,
      "tired ": 8149,
      "when, ": 8150,
      ", and all ": 8151,
      "eding ": 8152,
      "ed, and the ": 8153,
      "with one ": 8154,
      "shy": 8155,
      "shut ": 8156,
      "had left ": 8157,
      "had given ": 8158,
      "youth ": 8159,
      "not in ": 8160,
      "ental ": 8161,
      "I did not ": 8162,
      "her head ": 8163,
      "de, ": 8164,
      "deaf": 8165,
      "absur": 8166,
      "elop": 8167,
      "for a\r\n": 8168,
      "s, ‘": 8169,
      "but not ": 8170,
      "one of the\r\n": 8171,
      "terror ": 8172,
      "rest of the ": 8173,
      "oppon": 8174,
      "all is ": 8175,
      ",” she\r\n": 8176,
      "atist": 8177,
      "mist ": 8178,
      "to the left ": 8179,
      "to the right ": 8180,
      "imml": 8181,
      "to, ": 8182,
      "in the midst ": 8183,
      "which is ": 8184,
      "have I ": 8185,
      "ar and ": 8186,
      "what do you ": 8187,
      "! B": 8188,
      "! I": 8189,
      "faces of ": 8190,
      "more.\r\n": 8191,
      "armed ": 8192,
      "Prince Nicholas ": 8193,
      "Prince Bagratión": 8194,
      "s and a ": 8195,
      "il, ": 8196,
      "many\r\n": 8197,
      "up her ": 8198,
      "anger ": 8199,
      "rush ": 8200,
      "man is ": 8201,
      "man in the ": 8202,
      "faith ": 8203,
      "profound ": 8204,
      "proper ": 8205,
      ". In\r\n": 8206,
      "if the ": 8207,
      ". At that ": 8208,
      ",” said Pierre": 8209,
      "skin ": 8210,
      "e of his ": 8211,
      "other.\r\n": 8212,
      "others\r\n": 8213,
      "bless": 8214,
      "there and ": 8215,
      "taking\r\n": 8216,
      "der of ": 8217,
      "went on": 8218,
      "prepa": 8219,
      "came into the ": 8220,
      "pair ": 8221,
      "very glad ": 8222,
      "hands": 8223,
      "hands and ": 8224,
      "happy, ": 8225,
      "everyone": 8226,
      "chite": 8227,
      "way and ": 8228,
      "specially ": 8229,
      "past the ": 8230,
      "understand, ": 8231,
      "You’ll ": 8232,
      "time for ": 8233,
      "ecstat": 8234,
      "feeling\r\n": 8235,
      "men, and ": 8236,
      "expressing ": 8237,
      "drank ": 8238,
      "down his ": 8239,
      "tried ": 8240,
      "to be a ": 8241,
      "over a ": 8242,
      "in his own ": 8243,
      "plain that ": 8244,
      "cried, ": 8245,
      ". Our ": 8246,
      "face of the ": 8247,
      "hinder": 8248,
      "corpor": 8249,
      "correct": 8250,
      "Nothing ": 8251,
      "ish\r\n": 8252,
      "object ": 8253,
      "silence": 8254,
      "ness of the ": 8255,
      "told the ": 8256,
      "don’t you ": 8257,
      "back and ": 8258,
      "people were ": 8259,
      "ment, ": 8260,
      "round his ": 8261,
      "troy": 8262,
      "through his ": 8263,
      "Emperor’s\r\n": 8264,
      "hung": 8265,
      "hunt": 8266,
      "mater": 8267,
      "“Oh": 8268,
      "thereby ": 8269,
      "take the ": 8270,
      "let the ": 8271,
      "ed him and ": 8272,
      "who had come ": 8273,
      "front of ": 8274,
      "“He’s ": 8275,
      "enemy, ": 8276,
      "think so": 8277,
      "glances ": 8278,
      "hollow ": 8279,
      "toward him ": 8280,
      "foot, ": 8281,
      "everything was ": 8282,
      "speaking of ": 8283,
      "considered it ": 8284,
      "simult": 8285,
      "hurt ": 8286,
      "value ": 8287,
      "nerv": 8288,
      "suppli": 8289,
      ".” And ": 8290,
      "Prince Vasíli’s ": 8291,
      "smile of ": 8292,
      "greatly ": 8293,
      "Balag": 8294,
      "start ": 8295,
      "starting ": 8296,
      "talk about ": 8297,
      "confused ": 8298,
      "When he ": 8299,
      "“Dear ": 8300,
      "animal": 8301,
      "animal ": 8302,
      "raised ": 8303,
      "gallop ": 8304,
      "prisoners, ": 8305,
      "promin": 8306,
      "promise": 8307,
      "husband, ": 8308,
      "s—the ": 8309,
      "cry.\r\n": 8310,
      "leave of ": 8311,
      "shif": 8312,
      "plainly ": 8313,
      "he would have ": 8314,
      "? Who ": 8315,
      "Uncle ": 8316,
      "difficulti": 8317,
      "visitor ": 8318,
      "far from ": 8319,
      ". This was ": 8320,
      "up and down the ": 8321,
      ". Those ": 8322,
      "strength of ": 8323,
      "ponder": 8324,
      "spirits ": 8325,
      "short, ": 8326,
      "losing ": 8327,
      "nonsense ": 8328,
      "prepared ": 8329,
      "hope of ": 8330,
      "thousand rubl": 8331,
      "retreating ": 8332,
      "childlike ": 8333,
      "farther": 8334,
      "thrust ": 8335,
      "pipe ": 8336,
      "sighed ": 8337,
      "above all ": 8338,
      "Alpátych, ": 8339,
      "campfire": 8340,
      "fanci": 8341,
      "itution": 8342,
      "smilingly ": 8343,
      "limp": 8344,
      "afterward": 8345,
      "afterwards ": 8346,
      "accord ": 8347,
      "Mademoiselle Bourienne, ": 8348,
      "“Go ": 8349,
      "inevitabil": 8350,
      "lips, ": 8351,
      "expression.\r\n": 8352,
      "Guards": 8353,
      "Guards ": 8354,
      "inform ": 8355,
      "kissed her ": 8356,
      "good-nature": 8357,
      "good-natured ": 8358,
      "pushing ": 8359,
      "blushed ": 8360,
      "breathing ": 8361,
      "command of the ": 8362,
      "reported ": 8363,
      "left the room ": 8364,
      "family": 8365,
      "constant ": 8366,
      "landown": 8367,
      "Michau": 8368,
      "Pétya’s ": 8369,
      "defend ": 8370,
      "jump": 8371,
      "keeping ": 8372,
      "colonel": 8373,
      "advantage ": 8374,
      "grasp ": 8375,
      ", and so on": 8376,
      "major ": 8377,
      "sweet": 8378,
      "despite the ": 8379,
      "perfectly ": 8380,
      "the cause ": 8381,
      "cruel": 8382,
      "! Don’t ": 8383,
      "beneath ": 8384,
      "defeat": 8385,
      "whistling ": 8386,
      "commiss": 8387,
      "circumstances ": 8388,
      "mysterious ": 8389,
      "burst into ": 8390,
      "devotion ": 8391,
      "declar": 8392,
      "funn": 8393,
      "curiosity ": 8394,
      "beaten ": 8395,
      "Italian ": 8396,
      "private ": 8397,
      "divine ": 8398,
      "embarrassm": 8399,
      "friendship": 8400,
      "friendship ": 8401,
      "fetch ": 8402,
      "measur": 8403,
      "musket": 8404,
      "Paris ": 8405,
      "paused, ": 8406,
      "“Thank ": 8407,
      "ridicu": 8408,
      ". As soon as ": 8409,
      "rubles ": 8410,
      "dragoon": 8411,
      " Alexéevich ": 8412,
      "vagu": 8413,
      "Count, ": 8414,
      "Kozlóv": 8415,
      "outside the ": 8416,
      "concentrated ": 8417,
      "wouldn’t ": 8418,
      "Drubetskó": 8419,
      "melancho": 8420,
      "feature": 8421,
      "according to the ": 8422,
      "mirror": 8423,
      "nephew": 8424,
      "critic": 8425,
      "piece of ": 8426,
      "Mávra Kuzmínich": 8427,
      "Kiev": 8428,
      "domestic ": 8429,
      "Konovnít": 8430,
      "innoc": 8431,
      "Voróne": 8432,
      "atmosp": 8433,
      "simultane": 8434,
      "Konovnítsy": 8435,
      "(who ": 8436,
      "(1) ": 8437,
      "-ha": 8438,
      "Fir": 8439,
      "K ": 8440,
      "Kir": 8441,
      "Pel": 8442,
      "ah": 8443,
      "bound": 8444,
      "east ": 8445,
      "fur ": 8446,
      "g, ": 8447,
      "harm ": 8448,
      "isten": 8449,
      "jol": 8450,
      "k, ": 8451,
      "ke.\r\n": 8452,
      "nex": 8453,
      "ram": 8454,
      "ratt": 8455,
      "red and ": 8456,
      "yright ": 8457,
      "ère": 8458,
      "ëzin": 8459,
      "ól": 8460,
      "ün": 8461,
      "—he ": 8462,
      "’t, ": 8463,
      "“For ": 8464,
      "s from the ": 8465,
      "insol": 8466,
      "insul": 8467,
      "antic ": 8468,
      "ouse ": 8469,
      "ed him.\r\n": 8470,
      "and she ": 8471,
      "hiding ": 8472,
      "regi": 8473,
      "resum": 8474,
      "arose ": 8475,
      "argu": 8476,
      "around\r\n": 8477,
      "to you ": 8478,
      "to our ": 8479,
      "of being ": 8480,
      "of course": 8481,
      "stak": 8482,
      "he said ": 8483,
      "atic": 8484,
      "a of ": 8485,
      "as the\r\n": 8486,
      "ches, ": 8487,
      "in it": 8488,
      "in what ": 8489,
      "in time ": 8490,
      "in every ": 8491,
      "it?”\r\n": 8492,
      "seven": 8493,
      "lebr": 8494,
      "ality ": 8495,
      "his way ": 8496,
      "his son ": 8497,
      "beat ": 8498,
      "below": 8499,
      "bewil": 8500,
      "note": 8501,
      "nothing\r\n": 8502,
      "forgot ": 8503,
      "forgetting ": 8504,
      "saving ": 8505,
      "ric": 8506,
      "right\r\n": 8507,
      "actu": 8508,
      "whole of ": 8509,
      "with her\r\n": 8510,
      "shud": 8511,
      "is what ": 8512,
      "height ": 8513,
      "not having ": 8514,
      "not at all ": 8515,
      "aday": 8516,
      "ent.\r\n": 8517,
      "I should ": 8518,
      "I won’t ": 8519,
      "I do not ": 8520,
      "amb": 8521,
      "amm": 8522,
      "of the whole ": 8523,
      "destruction": 8524,
      "abov": 8525,
      "el\r\n": 8526,
      "for which ": 8527,
      "for him, ": 8528,
      "whir": 8529,
      "s, the\r\n": 8530,
      "coming to ": 8531,
      "one who ": 8532,
      "one thing ": 8533,
      "she could ": 8534,
      "from their ": 8535,
      "wake ": 8536,
      "quil": 8537,
      "by their ": 8538,
      "to the other ": 8539,
      "al of ": 8540,
      "akh": 8541,
      "hero ": 8542,
      "rain ": 8543,
      "rarely ": 8544,
      "me!” ": 8545,
      "in the morning ": 8546,
      "in the middle of the ": 8547,
      "celebr": 8548,
      "them, but ": 8549,
      ". “S": 8550,
      ". How": 8551,
      "so well ": 8552,
      "trap": 8553,
      "trust": 8554,
      "what had happen": 8555,
      "the cand": 8556,
      "the center ": 8557,
      "! It ": 8558,
      "space ": 8559,
      "army, and ": 8560,
      "armchair": 8561,
      "are they ": 8562,
      "weap": 8563,
      "weigh": 8564,
      "Prince Hippolyte ": 8565,
      "ily": 8566,
      "ily.\r\n": 8567,
      "tell\r\n": 8568,
      ". The French ": 8569,
      "their head": 8570,
      "?” Pierre ": 8571,
      "caused ": 8572,
      "loves ": 8573,
      "he had seen ": 8574,
      "ender ": 8575,
      "Rostóv,\r\n": 8576,
      ". A\r\n": 8577,
      ". Another ": 8578,
      "did not understand ": 8579,
      "grown": 8580,
      "bles": 8581,
      "taken\r\n": 8582,
      "taking his ": 8583,
      "ation to ": 8584,
      "der and ": 8585,
      "went in ": 8586,
      "committe": 8587,
      "pay": 8588,
      "pathe": 8589,
      "greet": 8590,
      "princip": 8591,
      "Prince, ": 8592,
      "Princess, ": 8593,
      "happy and ": 8594,
      "coar": 8595,
      "tically ": 8596,
      "poor": 8597,
      "rows of ": 8598,
      "felt the ": 8599,
      ".... But ": 8600,
      "feelings ": 8601,
      "mention ": 8602,
      "such and ": 8603,
      "ences ": 8604,
      "asked him ": 8605,
      "p of ": 8606,
      "words.\r\n": 8607,
      "him, and\r\n": 8608,
      "and, having ": 8609,
      "Rostóv was ": 8610,
      "must not ": 8611,
      "made it ": 8612,
      "marry": 8613,
      "of a man ": 8614,
      "“In ": 8615,
      "object": 8616,
      "silver ": 8617,
      "silence.\r\n": 8618,
      "took her ": 8619,
      "discipl": 8620,
      "CHAPTER I\r\n": 8621,
      "CHAPTER II\r\n": 8622,
      "CHAPTER V\r\n": 8623,
      "CHAPTER III\r\n": 8624,
      "CHAPTER IV\r\n": 8625,
      "CHAPTER IX\r\n": 8626,
      "women, ": 8627,
      "“At ": 8628,
      "trees ": 8629,
      "!” said he, ": 8630,
      "entertain": 8631,
      "that he was\r\n": 8632,
      "Napoleon and ": 8633,
      "are, ": 8634,
      "ed in the\r\n": 8635,
      "bringing ": 8636,
      "steward ": 8637,
      "give me ": 8638,
      "subordin": 8639,
      "every day ": 8640,
      "        ": 8641,
      "perial ": 8642,
      "feeling that ": 8643,
      "clothe": 8644,
      "science ": 8645,
      "hollow": 8646,
      "offend": 8647,
      "ject\r\n": 8648,
      "s that had ": 8649,
      "downstair": 8650,
      "!” he shout": 8651,
      "remaining ": 8652,
      "between\r\n": 8653,
      "strange, ": 8654,
      "strange to ": 8655,
      "speaking to ": 8656,
      "“What is ": 8657,
      "sent for ": 8658,
      "large, ": 8659,
      "calcul": 8660,
      "standard": 8661,
      "CHAPTER X\r\n": 8662,
      "CHAPTER XI\r\n": 8663,
      "CHAPTER XII\r\n": 8664,
      "hurry ": 8665,
      "why he ": 8666,
      "accid": 8667,
      "suppo": 8668,
      ".” (": 8669,
      "back.\r\n": 8670,
      "?” asked Pierre.\r\n": 8671,
      "looked at his ": 8672,
      "confus": 8673,
      "wants to ": 8674,
      "quarter ": 8675,
      "life—": 8676,
      "opened the ": 8677,
      "battlefield ": 8678,
      "year-old ": 8679,
      "actions ": 8680,
      "softly ": 8681,
      "control ": 8682,
      "awo": 8683,
      "horses were ": 8684,
      "police ": 8685,
      "writing ": 8686,
      "familiar": 8687,
      "paced ": 8688,
      "surprise": 8689,
      "instant": 8690,
      "the old man ": 8691,
      "I’d ": 8692,
      "activity of ": 8693,
      "Anna Pávlovna, ": 8694,
      "companion ": 8695,
      ". Dur": 8696,
      "Berëzin": 8697,
      "minute ": 8698,
      "repeated the ": 8699,
      "wife.\r\n": 8700,
      "cause, ": 8701,
      "simple and ": 8702,
      "around him ": 8703,
      "mistres": 8704,
      "occurred ": 8705,
      "Petersburg, ": 8706,
      "all that was ": 8707,
      "Mary, ": 8708,
      "sentin": 8709,
      "sounds of ": 8710,
      "woman’s ": 8711,
      "droop": 8712,
      "smiling, ": 8713,
      "table and ": 8714,
      "grief ": 8715,
      "picture": 8716,
      "All the ": 8717,
      "forehead ": 8718,
      "Guards, ": 8719,
      "thinking of ": 8720,
      "conditions of ": 8721,
      "nurser": 8722,
      "air of ": 8723,
      "concerning ": 8724,
      "affect": 8725,
      "free will ": 8726,
      "Mamma ": 8727,
      "indicating ": 8728,
      "acquaintances ": 8729,
      "Vive ": 8730,
      "effort to ": 8731,
      "entrance ": 8732,
      "knocked ": 8733,
      "opposit": 8734,
      "eager": 8735,
      "together, ": 8736,
      "cavalry": 8737,
      "passionately ": 8738,
      "course of ": 8739,
      "judge ": 8740,
      "rolled ": 8741,
      "welcom": 8742,
      "Bilíbin": 8743,
      "Borís’ ": 8744,
      "beauty": 8745,
      "beauty ": 8746,
      "solemn": 8747,
      "deeply ": 8748,
      "justific": 8749,
      "evident that ": 8750,
      "bayon": 8751,
      "ashamed of ": 8752,
      "Christi": 8753,
      "cruel ": 8754,
      "Suddenly ": 8755,
      "inclin": 8756,
      "hospital ": 8757,
      "darkness": 8758,
      "“For": 8759,
      "1812 ": 8760,
      "CHAPTER VI\r\n": 8761,
      "CHAPTER VII\r\n": 8762,
      "CHAPTER VIII\r\n": 8763,
      "already": 8764,
      "amid the ": 8765,
      "estates ": 8766,
      "spectacles ": 8767,
      "the captain": 8768,
      ". They\r\n": 8769,
      "conviction ": 8770,
      "broadshe": 8771,
      "inhabitants ": 8772,
      "bullets ": 8773,
      "enchant": 8774,
      "feeble ": 8775,
      "“Now then, ": 8776,
      "minutes later ": 8777,
      "Papa ": 8778,
      "Everything ": 8779,
      "obvious ": 8780,
      "obviously ": 8781,
      "presented itself ": 8782,
      "Lavrúshka ": 8783,
      "shining ": 8784,
      "indeed": 8785,
      "aunt ": 8786,
      "l’Empereur": 8787,
      "rejoic": 8788,
      "sincerely ": 8789,
      "unconsciously ": 8790,
      "Otrádnoe ": 8791,
      "joyous ": 8792,
      "Platón ": 8793,
      "maneuver": 8794,
      "pucker": 8795,
      "intellectual ": 8796,
      "Minister of ": 8797,
      "Ferapón": 8798,
      "conveni": 8799,
      "Dokhtúrov ": 8800,
      "Ryazán ": 8801,
      "ood-by, ": 8802,
      "Horse ": 8803,
      "official": 8804,
      "Shevárdino Redoub": 8805,
      "Fëdorov": 8806,
      "paragrap": 8807,
      "commissari": 8808,
      "bewilder": 8809,
      "?’ ": 8810,
      "Another ": 8811,
      "BO": 8812,
      "Cros": 8813,
      "EN": 8814,
      "Im": 8815,
      "Krem": 8816,
      "Kolo": 8817,
      "OK ": 8818,
      "Squ": 8819,
      "Til": 8820,
      "Vá": 8821,
      "Without ": 8822,
      "Zna": 8823,
      "bread": 8824,
      "big": 8825,
      "bought ": 8826,
      "bending ": 8827,
      "crush": 8828,
      "f\r\n": 8829,
      "fter": 8830,
      "fough": 8831,
      "fying ": 8832,
      "fun ": 8833,
      "gli": 8834,
      "ies": 8835,
      "lor": 8836,
      "ling\r\n": 8837,
      "land, ": 8838,
      "mlin": 8839,
      "ne\r\n": 8840,
      "pas ": 8841,
      "ry\r\n": 8842,
      "s. They ": 8843,
      "slip": 8844,
      "test": 8845,
      "u ": 8846,
      "vac": 8847,
      "wand": 8848,
      "’” ": 8849,
      "e than ": 8850,
      "s when ": 8851,
      "s in\r\n": 8852,
      "s with\r\n": 8853,
      "s were\r\n": 8854,
      "iness\r\n": 8855,
      "ans, ": 8856,
      "anting ": 8857,
      ", in ": 8858,
      "the right ": 8859,
      "the officer ": 8860,
      "ed all ": 8861,
      "ed so ": 8862,
      "inger": 8863,
      "his": 8864,
      "recon": 8865,
      "reign ": 8866,
      "readi": 8867,
      "reception": 8868,
      "art": 8869,
      "to Pierre ": 8870,
      "to come ": 8871,
      "to another ": 8872,
      "to help ": 8873,
      "to show ": 8874,
      "to say, ": 8875,
      ". R": 8876,
      "at one ": 8877,
      "at night ": 8878,
      "ato": 8879,
      "a French ": 8880,
      "a young ": 8881,
      "a moment ": 8882,
      "a third ": 8883,
      "a fine ": 8884,
      "as he\r\n": 8885,
      "as it was ": 8886,
      "as usual ": 8887,
      "as quickly ": 8888,
      "es. He ": 8889,
      "es-de-": 8890,
      "chem": 8891,
      "in which\r\n": 8892,
      "it,” ": 8893,
      "it. The ": 8894,
      "set to ": 8895,
      "theory ": 8896,
      "let’s ": 8897,
      "aly": 8898,
      "beli": 8899,
      "that that ": 8900,
      "was he ": 8901,
      "was all ": 8902,
      "was quite ": 8903,
      "was evidently ": 8904,
      "noble ": 8905,
      "nobody ": 8906,
      "novel": 8907,
      "noise ": 8908,
      "say.\r\n": 8909,
      "saber ": 8910,
      "acting ": 8911,
      "sian ": 8912,
      "sick": 8913,
      "sim ": 8914,
      "sive\r\n": 8915,
      "till\r\n": 8916,
      ", and to ": 8917,
      ", and they ": 8918,
      ", and how ": 8919,
      ", and again ": 8920,
      "ed. And ": 8921,
      "light, ": 8922,
      "with them": 8923,
      "shel": 8924,
      "had taken ": 8925,
      "had done ": 8926,
      "is an ": 8927,
      "is always ": 8928,
      "unexpected ": 8929,
      "unnatural ": 8930,
      "evil": 8931,
      "heires": 8932,
      "not have ": 8933,
      "adet ": 8934,
      "I may ": 8935,
      "among": 8936,
      "it the ": 8937,
      "it seem": 8938,
      "confin": 8939,
      "ice": 8940,
      "n and ": 8941,
      "frank": 8942,
      "abrup": 8943,
      "agé": 8944,
      "elbow ": 8945,
      "embro": 8946,
      "exchanged ": 8947,
      "Andr": 8948,
      "complain": 8949,
      "e, he ": 8950,
      "ally.\r\n": 8951,
      "The old ": 8952,
      "The first ": 8953,
      "The officer ": 8954,
      "out of his ": 8955,
      "all was ": 8956,
      "net": 8957,
      "up, and ": 8958,
      "her.”\r\n": 8959,
      "lay, ": 8960,
      "which seemed to ": 8961,
      "have no ": 8962,
      ". “B": 8963,
      ". “L": 8964,
      ". “I\r\n": 8965,
      ". “I am ": 8966,
      ". “My ": 8967,
      ". Had ": 8968,
      "trac": 8969,
      "what she was ": 8970,
[...]
